<unk>
<pad>
<s>
</s>
the
de
of
la
to
and
et
le
a
in
les
à
des
que
is
that
en
for
I
du
on
dans
pour
nous
be
qui
we
this
une
un
ce
est
are
have
sur
au
pas
it
not
as
-
with
ne
which
European
par
The
Commission
by
will
plus
has
je
aux
an
Je
cette
Mr
il
at
would
sont
also
should
from
avec
our
We
se
must
but
Nous
Il
all
been
Monsieur
ces
mais
être
ont
été
It
d'@@
La
can
its
President,
or
Le
was
Member
pays
européenne
more
vous
comme
you
fait
their
like
Président,
.
important
tout
Parlement
do
very
ou
politique
rapport
there
États
y
question
This
également
l'@@
l'Union
In
these
they
d'une
qu'il
Union
notre
aussi
me
one
leur
Conseil
si
what
avons
Parliament
faire
doit
about
son
report
Les
très
need
other
Europe
my
Council
membres
d'un
who
only
us
tous
point
En
new
situation
,
entre
so
bien
même
States
if
d’@@
européen
EU
no
devons
M.
because
l’@@
am
nos
  
droits
in@@
such
up
take
into
make
between
re@@
those
:
voudrais
countries
people
out
support
ses
contre
peut
dont
some
?
C'est
any
when
sans
donc
now
part
being
protection
social
political
non
vote
deux
than
were
l'
soit
directive
c'est
proposition
s
-@@
ainsi
cela
able
time
economic
made
policy
suis
elle
ant
e,
sa
encore
therefore
possible
commission
believe
work
many
faut
against
n'est
leurs
"@@
position
mesures
es,
é
es.
place
développement
cet
first
s,
afin
Ce
doivent
tant
That
pense
que,
ent
just
way
matière
sécurité
public
;
sommes
think
travail
où
human
say
es
déjà
mon
car
marché
cadre
programme
Madame
national
ons
s.
rights
groupe
questions
Committee
manière
e.
un@@
had
concerne
dire
international
even
budget
As
cannot
et,
services
does
sera
same
two
order
want
er
could
most
niveau
proposal
respect
'@@
fact
droit
Commission,
ait
them
that,
where
right
certain
financial
already
cas
within
d'
conditions
citoyens
politiques
–
how
use
(@@
still
debate
toute
és
There
Dans
européenne.
both
parce
good
rapporteur
ée
common
However,
and,
much
ing
débat
concernant
toutes
sein
Mrs
development
certains
see
On
your
long
under
issue
personnes
measures
action
over
ensure
é@@
mettre
his
mise
lors
well
dé@@
clear
d'autres
s'@@
système
er,
taken
s@@
put
économique
seulement
moins
efforts
hope
institutions
vue
coopération
e
problème
number
avoir
Pour
future
market
own
nombre
fois
agreement
Commission.
without
why
%
Mme
nom
may
Community
base
gentlemen,
through
last
he
grande
autres
L'@@
b@@
ées
À
means
avant
pourquoi
If
en@@
devrait
s'agit
toujours
plan
know
particularly
give
here
Madam
problèmes
information
temps
savoir
e@@
is,
ceux
Cela
S@@
cooperation
great
Si
laquelle
raison
d@@
Cette
prendre
j'ai
points
processus
Mais
relations
faveur
secteur
européenne,
ils
rôle
l'UE
votre
energy
given
legal
A
cours
ation
dit
mes
notamment
compte
qu'elle
importance
ré@@
citizens
it.
er.
soient
however,
then
ation,
dis@@
Europe.
partie
years
g@@
beaucoup
continue
domaine
demande
ladies
's
before
said
country
United
l'Europe
C@@
set
solution
t,
gouvernement
transport
lieu
whether
al
propositions
thank
t@@
pouvons
too
regard
était
serait
Commissioner
view
président
n'@@
a,
nouvelle
behalf
ation.
A@@
mesure
since
peuvent
attention
end
next
résolution
soutien
programmes
ti@@
pouvoir
besoin
system
large
Commissioner,
production
particular
B@@
depuis
l'on
n'a
nouveau
dialogue
accord
peu
traité
Union.
far
c@@
necessary
alors
favour
ed
autre
qu'ils
President
!
further
objectifs
al@@
l’Union
face
come
role
Commissaire,
problems
particulier
What
case
different
amendements
i@@
aujourd'hui
problem
millions
elles
f@@
area
produits
d’une
P@@
security
monde
For
'
première
after
agree
i
v@@
Europe,
help
après
going
ask
stratégie
entreprises
t
règlement
décision
quelques
is@@
h@@
process
better
jour
santé
vers
ar@@
Mesdames
level
qui,
wish
needs
But
bonne
k@@
De
façon
towards
ni
eu
commune
nouveaux
T@@
t.
terms
Members
contrôle
o@@
qu’il
issues
commissaire
crois
selon
few
Présidente,
règles
trois
Par
working
House
voted
de@@
p@@
current
sujet
lutte
second
sous
amendments
particulièrement
F@@
M@@
fonds
garantir
a@@
E@@
moment
proposals
actions
adopted
principe
J'ai
today
européens
ch@@
trade
something
femmes
)
three
basis
seront
grand
framework
go
ma
projet
présidence
year
l@@
resolution
voir
nouvelles
ing,
re,
dès
welcome
including
remercier
shall
bon
really
R@@
matter
nombreux
va
ations
te
régions
ans
s'est
m@@
ici
world
Treaty
nécessaire
rules
ing.
al,
ts
fin
chaque
every
clairement
present
provide
ers
specific
during
lui
vie
G@@
er@@
co@@
all,
é,
y,
States.
health
crise
aient
ted
d’un
plusieurs
positive
done
areas
«@@
did
population
aspects
an@@
voté
aid
pourrait
députés
on@@
find
especially
aucun
it,
nécessité
trop
visant
n@@
age
quite
course,
used
progress
become
parties
greater
législation
Une
1
increase
autorités
decision
ent,
là
communication
change
D@@
million
environmental
tiens
Ces
qu'@@
certaines
proposed
time,
Messieurs,
women
premier
They
 @@
opportunity
d,
œuvre
making
d.
again
rapporteur,
avez
européen,
based
ag@@
result
im@@
di@@
serious
y@@
li@@
rather
clearly
s'
Elle
ate
report.
é.
force
Union,
présent
These
States,
qualité
call
Commission's
ting
procédure
always
real
négociations
le@@
taking
recherche
less
contribution
Parliament,
major
ent.
global
part,
membres.
 -
fundamental
es@@
once
whole
2
down
voulons
as@@
Comme
K@@
y.
effective
donner
law
r@@
internal
Nations
various
get
opinion
initiative
example,
ter
third
At
H@@
report,
fully
era
000
course
forward
state
access
Group
avait
deal
européen.
re.
democratic
each
reste
service
cause
main
State
inter@@
lorsque
ressources
w@@
legislation
ra@@
achieve
general
"
small
donné
subject
group
el@@
account
Conseil,
mis
justice
aura
discussion
semble
qu'une
excellent
davantage
création
soutenir
principle
allow
look
impact
difficult
État
l'homme
approach
constitue
te,
ad@@
Et
prix
another
affaires
having
3
aucune
countries.
while
se@@
ated
L@@
least
essential
maintenant
No
free
Au
responsabilité
organisations
a.
membre
société
M. @@
together
étant
implementation
V@@
5
consider
o
back
am@@
ants
single
type
crisis
telle
instruments
membres,
comment
és.
Council,
Un
sector
her
chose
effet
N@@
6@@
souligner
responsibility
participation
al.
exemple,
quant
yet
Toutefois,
différents
ations,
lequel
années
regulation
gestion
ver@@
liberté
celui
sorte
progrès
propose
exemple
3@@
7@@
surtout
réponse
recent
pris
resources
non-@@
par@@
agricultural
relation
pays,
let
due
safety
countries,
possibilité
full
certainly
initiatives
extremely
si@@
authorities
quelque
actuellement
research
croissance
it@@
ro@@
or@@
policy.
souhaite
renforcer
(DE)
bring
toutefois
nombreuses
4@@
st@@
best
simply
O@@
high
sociale
mieux
devraient
permettre
instrument
Parlement,
rien
créer
qu'un
existe
accords
deuxième
juridique
souvent
employment
demander
normes
coordination
moyens
compris
collègues
peut-être
d'être
negotiations
(EN)
often
vi@@
ée.
create
Enfin,
s’@@
Convention
EUR
ab@@
collègues,
strategy
concerns
décisions
période
following
u@@
pu
économiques
actually
violence
celle
pêche
terme
interests
final
regional
trouver
might
s:
developing
communautaire
écrit.
5@@
8@@
freedom
step
mois
te.
qu'
this.
européennes
trans@@
Presidency
food
z@@
travailleurs
which,
Let
pré@@
us,
application
importante
groupes
devrions
us.
discussions
on.
fight
texte
con@@
données
accept
things
simplement
quality
mo@@
ations.
que.
improve
voie
concerning
effet,
currently
policies
propos
le,
résultats
4
és,
fi@@
ir@@
nature
tel
form
te@@
on,
money
euro
Article
government
pays.
commerce
région
financement
ou@@
this,
l'a
You
majority
ri@@
n'y
Vous
Finally,
products
I@@
Parliament.
ating
aware
C’est
To
itself
majorité
9@@
reason
concurrence
eux
projets
juste
termes
consommateurs
extrêmement
intérêts
ons,
sens
tels
ant,
domaines
So
rapport.
dispositions
ed,
ous
m
vraiment
2@@
control
rapport,
six
d'accord
font
power
l'article
possible.
them.
key
Lisbon
).
10
rendre
réforme
seule
Président
Assemblée
n'ont
ac@@
plutôt
local
lo@@
document
quand
convient
vo@@
regards
20
climate
solutions
funds
tes
reform
dernières
l'ensemble
essentiel
Parliament's
example
approche
open
marchés
forces
ers,
joint
l'accord
involved
Cour
you,
question.
propre
c’est
industry
objectif
changement
per@@
États-Unis
6
conclusions
principes
ques
7
Court
qu@@
decisions
start
appelle
understand
Cependant,
ée,
puisse
ment
démocratie
devant
among
And
appropriate
réduire
),
chers
sur@@
interest
message
concern
n’est
l
lack
ed.
15
forme
pendant
risk
regions
amendment
k
Tout
writing.
ex@@
peux
meeting
promotion
ts,
activités
Government
preuve
aide
responsible
legislative
sure
relative
vu
systèmes
/@@
growth
ité
ées.
aurait
culture
jamais
et@@
volonté
objective
promote
able.
at@@
res@@
feel
Fonds
s?
répondre
My
dernière
said,
act
significant
8
although
individual
meilleure
congratulate
crucial
policy,
competition
moyen
informations
no@@
peace
tions
With
stabilité
conséquences
regarding
aire
suite
particular,
ant.
taux
ales
choses
members
available
le.
nuclear
civil
l'aide
grâce
nécessaires
companies
telles
su@@
agreements
doing
draft
risque
objectives
sustainable
efficace
special
line
Ils
rer
do@@
dit,
j@@
Re@@
cependant
committee
ment,
mi@@
led
po@@
déclaration
paix
m'@@
conséquent,
longer
prevent
concerned
12
kind
unique
ers.
internationale
dernier
qu'à
Amendment
makes
little
parler
standards
democracy
raisons
Parlement.
ap@@
au@@
".
zone
th@@
guarantee
réduction
ment.
comes
titre
aim
man@@
assurer
lead
véritable
young
several
include
cas,
foreign
Our
mean
provided
féliciter
note
relatives
strong
ates
ally
management
perhaps
qu'en
compromis
ter@@
commitment
thing
régime
effort
indeed
prise
seul
assistance
period
ly
ère
outre,
différentes
ques,
tenir
text
critères
res,
d
above
ance
s;
field
data
procedure
W@@
rapports
trouve
étaient
doute
fin@@
savons
tax
9
représente
idea
enfants
J@@
nothing
tr@@
em@@
seen
temps,
ai@@
be@@
d'abord
ity
gouvernements
agreed
workers
red
signifie
existing
principles
results
uniquement
future.
formation
ons.
sommet
total
remain
’s
procédures
promouvoir
améliorer
s'il
seems
l'amendement
rapidement
Bien
clair
Secondly,
play
upon
ans,
technical
Union's
réellement
publique
L’@@
over@@
One
states
libre
prises
labour
c
benefit
children
J'espère
Affairs
pleased
certainement
1@@
remercie
avis
ten@@
construction
Conseil.
Council.
discrimination
Des
active
conclusion
adopté
il@@
ts.
ques.
mis@@
time.
motion
mentioned
hand,
grandes
op@@
cultural
until
qu'elles
ler
aspect
l'importance
apply
groups
simple
de.
society
is.
economy
express
funding
veut
per
possible,
needed
av@@
‘@@
30
share
tion,
pre@@
fact,
compromise
personne
rappeler
mention
dois
able,
basic
difficile
dimension
carried
parti
de,
met
ministre
-,
move
confiance
25
ante
pay
résultat
petites
military
ci@@
gu@@
absolument
encourage
never
financière
words
relating
true
exercice
voting
market.
pe@@
res.
présente
autant
mission
général
propres
plus,
11
ent@@
tion.
plans
tenu
using
context
ence,
valeurs
reduce
protéger
re
ables
è@@
manque
adopt
intervention
ées,
celles
direct
consumer
date
en,
out@@
veiller
vital
parmi
therefore,
increasing
protect
environment
Turquie
qu'on
important.
important,
g
question,
jusqu'à
priority
d'avoir
us@@
moi,
draw
asked
com@@
situation.
n
nationaux
zones
pro@@
achieved
l'avenir
l'utilisation
enlargement
Thank
quel
life
held
jeunes
solidarité
reports
tiers
throughout
n’@@
éléments
ic@@
concept
pas,
item
point,
l'emploi
budgetary
show
All
capacité
thus
cohésion
totalement
try
est,
Turkey
equal
min@@
meet
When
l'environnement
me,
themselves
direction
creation
Mr @@
matters
speak
ise
respecter
costs
rural
relevant
l'année
provisions
moi
l'é@@
close
transparence
called
response
education
ensemble
nous,
keep
continuer
projects
j'@@
rights.
governments
vient
sanctions
that.
soon
rights,
obligations
off
coming
démocratique
Russie
l'objet
n'
travail.
years,
frontières
years.
cases
ves
minimum
establish
changes
(PL)
grands
coûts
develop
d’autres
consensus
anti@@
l'UE.
cinq
view,
l'économie
external
présenter
fait,
balance
directives
quatre
ment@@
élections
systems
region
car@@
accession
previous
presented
pi@@
namely
ni@@
mer
documents
om@@
enough
increased
saying
tabled
ence.
Notre
vos
around
el,
ds
activities
tri@@
Therefore,
ai
collègue
permettant
chance
collaboration
lesquels
parvenir
ement
me@@
puissent
contexte
der
jobs
demandé
France
traitement
enable
technologies
paragraphe
sources
50
police
voter
ar
to@@
réunion
précisément
ailleurs,
urgent
victimes
ayant
across
aires
ter,
pleinement
l’Europe
attitude
combat
renforcement
u
whose
she
ourselves
too,
sou@@
ale,
talking
effect
référence
pourra
consumers
him
accepter
Communauté
capital
agricole
»
considère
Al@@
pl@@
l'industrie
développer
fishing
tion
ine
priorité
for@@
vigueur
ens
private
integration
intérieur
everything
President-in-Office
absolutely
dépenses
today,
entendu
nationales
10@@
Constitution
though
directive.
year.
exigences
work.
valeur
prepared
e-@@
year,
investment
age,
centrale
administrative
five
résoudre
début
tu@@
du@@
ol@@
ce@@
decided
adoption
el
réformes
d'é@@
expressed
address
he@@
ding
z
an,
case,
day
série
four
pourraient
se,
tell
ants.
ale.
année
rule
business
fondamentaux
quelle
budgétaire
présenté
travers
travailler
fellow
l'objectif
communauté
focus
vis-à-vis
value
condition
l'occasion
h
actuelle
ge
don@@
pression
aire.
effets
positions
colleagues
guerre
structural
proposé
ance.
perspective
dû
Russia
se.
Directive
level.
partenaires
giving
brought
bo@@
assez
amendement
secteurs
félicite
implement
importants
es:
illegal
gens
ve@@
priorités
solidarity
road
ité,
months
eurs
rel@@
train
el.
influence
tes,
statut
request
fort
answer
ages
sûr
lutter
économique,
partage
world.
bi@@
session
men@@
Deuxièmement,
engagement
constituent
talk
années,
monitoring
besoins
perspectives
conférence
consequences
évidemment
parliamentary
ted.
aussi,
consultation
l'un
e:
reasons
substances
EU's
took
permettra
produit
lot
air
permet
peuple
contribuer
durable
ité.
table
poursuivre
d'action
aire,
impossible
porte
all@@
.@@
possibilités
almost
hommes
enfin
ve,
ali@@
statement
sh@@
ale
takes
modèle
reached
sais
transparency
amount
reduction
partenariat
French
mondiale
demand
aides
additional
opinion,
reach
vise
central
L'Union
people,
agenda
completely
outside
mêmes
Lisbonne
everyone
permis
concerned,
vrai
creating
potential
ensuring
ren@@
today.
stability
défense
ability
know,
so@@
along
difficultés
2000
Con@@
UN
politique.
représentants
ne@@
introduction
jouer
aider
raised
pressure
ter.
quoi
",
opportunities
aires.
British
éviter
thanks
Europe's
vision
ence
ve
rapporteurs
vont
citizens.
nor
structure
pratiques
politique,
l'heure
past
apporter
fair
country,
égard,
strengthen
stress
conformément
derniers
financières
milliards
directive,
ill@@
others
natural
aires,
old
passer
ur@@
ront
plupart
possibility
personnel
ve.
troisième
lesquelles
pas.
l'application
t-@@
ments
l'Union.
fonctionnement
EU.
cohesion
transports
ez
sense
Furthermore,
required
commun
source
fisheries
européens.
i,
l'in@@
organisation
2,
J'@@
light
réalité
charge
compétences
ans.
point.
review
Firstly,
ants,
movement
in,
unies
qu’elle
included
supported
Of
travaux
issue.
peine
circulation
gi@@
pen@@
established
training
cu@@
people.
job
antes
révision
ati@@
International
énergétique
ra
values
practical
té
mor@@
pensons
crime
commercial
US
l'ordre
procedures
criteria
aujourd'hui,
loin
way,
requirements
effects
anti-@@
mal@@
commencer
vote.
réjouis
tes.
puisque
despite
l'adoption
cela,
situations
cré@@
République
certaine
réglementation
aimed
mar@@
cost
d'entre
responsables
mener
regulations
occasion
soutiens
risques
res
l’UE
live
considération
area.
l'État
project
here.
market,
Central
l'Europe.
élément
financier
men
monde.
ance,
l'égard
convention
veux
found
proper
ais
ents
ét@@
structures
devoir
financiers
discuss
humanitarian
avoid
offer
(PT)
erait
donne
Party
c'est-à-dire
capable
devra
adopter
ministres
fer@@
via
received
e?
liste
behind
living
war
dix
begin
iss@@
%.
Rights
sûr,
elle,
mon@@
remains
1,
chacun
comprendre
parole
pose
trying
développement.
0@@
task
allons
caractère
s’agit
honourable
suffisamment
fournir
défis
accordance
opposition
près
water
cou@@
k,
immigration
ul@@
décidé
not,
experience
els
carry
Group.
eur
Economic
ven@@
Nos
eu@@
according
l'énergie
expect
contribute
turn
travail,
doubt
changements
ser@@
Minister
tion@@
now,
ded
either
precisely
rapporteur.
conséquent
rons
uni@@
times
ru@@
price
ensuite
choix
souhaiterais
ten
representatives
montre
cour@@
émissions
j’ai
semaine
tions.
alisation
européens,
markets
success
Permettez-moi
process.
constater
World
age.
partir
ever
ères
27
importantes
malgré
(FR)
farmers
providing
situation,
personal
recently
ted,
(IT)
scope
pratique
danger
U@@
Schengen
huge
eront
violations
20@@
hand
In@@
ner
developed
heard
agriculture
désormais
ity,
powers
ments,
investissements
improving
elections
side
forms
sé@@
Kosovo
maintenir
phase
provides
relatif
rés
stop
l'UE,
ally,
Social
challenges
institution
considered
country.
ge@@
calls
alis@@
surveillance
tra@@
déclaré
goes
implementing
are,
add
loi
exprimer
discussed
reference
citoyens.
shown
consiste
form@@
in.
left
signal
conflict
grave
promoting
d'euros
favorable
l'accès
es?
away
list
ins
accès
ant@@
augmentation
biais
Mar@@
institutional
allowed
sort
former
j'espère
strategic
hard
considerable
elle.
13@@
remind
libertés
mer@@
ho@@
budget.
d'ailleurs
ation@@
n'avons
votes
publics
waste
alternative
words,
approved
criminal
dealing
obstacles
debate.
p
ly,
sociaux
He
compétitivité
constructive
Voilà
prochaine
demain
mind
s-@@
ative
effectivement
qu’ils
say,
assessment
particulier,
obtenir
priorities
es;
intention
ér@@
atteindre
engagements
cr@@
succès
institutions.
18
poser
parlementaire
indispensable
animal
annual
me.
scientific
Banque
here,
services,
victims
committed
court
la@@
als
auquel
communautaires
en.
x@@
short
viol@@
12@@
Sur
séance
maritime
receive
care
envers
l'agriculture
fe@@
future,
billion
looking
rate
Development
rightly
outre
passé
d'autre
wanted
prévoit
...
liés
puis
long-term
maximum
n,
présence
Irish
bonnes
déclarations
Human
cro@@
ak@@
at,
ph@@
événements
applied
veulent
causes
levels
quickly
13
f
ban
sociales
bl@@
tions,
independent
them,
off@@
closed.
way.
importe
spécifiques
Republic
terrorisme
mé@@
paid
parfois
package
mandat
place.
ie
ines
l'égalité
industrial
end@@
développement,
treatment
acceptable
pourrons
sector.
meilleur
capacity
community
lignes
der@@
f,
services.
'.
poverty
but,
entire
paquet
defence
pos@@
che
o,
instead
complete
finally
devenir
cit@@
beyond
aller
avions
confidence
pauvreté
law.
centre
rester
maintain
directement
19@@
setting
rest
gé@@
chez
requires
ger
».
stage
reconnaissance
r,
Conference
l'intérêt
ways
rée
institutions,
ago
alité
implemented
producteurs
mais,
stand
return
Justice
practice
establishing
libéralisation
ligne
overall
présent@@
qu’@@
ue
China
agriculteurs
d'in@@
referred
suivi
définition
budgets
How
supporting
intérêt
medium-sized
enti@@
moment,
half
provision
ch
générale
hold
Chine
réaliser
Premièrement,
récemment
development.
dés@@
ity.
tent
addition,
utiliser
pay@@
quotas
vis@@
action.
double
fo@@
candidats
Selon
Par@@
lis@@
death
pri@@
fonction
passe
EU,
gives
principal
intended
restrictions
ble
mal
asylum
calling
adoptée
avaient
guidelines
monétaire
clos.
n’a
level,
views
highly
malheureusement
decide
events
financing
dev@@
increasingly
beginning
related
40
work,
14@@
courage
efficient
Présidence
pollution
programme.
ob@@
out,
Euro@@
steps
C
l'efficacité
exchange
disposition
l'idée
content
German
3,
terrorism
system.
conflit
n'en
S
Although
che@@
affected
analyse
encourager
types
achieving
produce
forte
parts
regret
fu@@
ments.
même,
parle
principaux
reducing
reforms
évaluation
comité
venir
sous-@@
December
ings
rapide
paragraph
territoire
domaine.
proposal.
reçu
Fund
l'Europe,
techniques
extent
ing@@
directly
urge
strengthening
similar
Z@@
ris@@
connection
rait
montrer
family
L'ordre
re-@@
suivre
citoyens,
Pro@@
obligation
partis
aux,
Ceci
cent
sed
presidency
sub@@
décembre
successful
Elles
réalis@@
Rules
sociétés
genuine
représent@@
tout,
l'environnement,
Security
emissions
ated.
conclusion,
r.
niveaux
all.
profit
réseaux
crimes
shows
caused
stated
closely
cor@@
moyennes
évident
join
fs
Foreign
permettez-moi
néanmoins
populations
whom
l'attention
nouvel
Since
monetary
comp@@
délégation
ables.
ago,
crédits
higher
Néanmoins,
haut
comptes
prévention
soumis
created
represents
reconnaître
chômage
refer
combating
15@@
specifically
term
early
benefits
one.
gr@@
défendre
14
or,
violation
les.
dire,
employ@@
plan@@
menace
budget,
aujourd’hui
agir
union
ev@@
discussing
harmonisation
respond
introduce
salue
ratification
so-called
débats
sufficient
propos@@
modification
emphasise
ass@@
Moreover,
gaz
oil
(NL)
ly.
bu@@
tirer
responsable
fac@@
f.
ction
candidate
ite
pourront
conven@@
leave
ce,
partnership
économie
l'Union,
P
again,
Regulation
ban@@
pointed
American
balanced
limited
hear
sujet.
pouvoirs
largement
clause
debate,
ACP
so.
land
rez
pacte
sitting
faire.
prices
graves
actuel
rou@@
ales,
tomorrow
building
1999
els,
Après
difficulties
convinced
becoming
code
l'homme,
%,
goods
East
responsabilités
participer
status
ens,
well.
déchets
man
avantages
aux.
permanent
ère,
represent
nation@@
autres,
espérons
appel
model
ales.
souligné
erons
After
économique.
require
4,
pu@@
l'intégration
etc.
contrôles
trafic
so,
avis,
parfaitement
présent,
préoccupations
100
nations
ents.
tâche
tre@@
emplois
impose
5,
opinions
traiter
tient
recognise
go@@
challenge
économies
tur@@
contenu
durant
utilis@@
17@@
days
sector,
cross-border
fois,
problème.
follow
lan@@
rise
heureux
distribution
cut
sometimes
ici,
ble.
conscience
définir
entendu,
partners
cre@@
garantie
Spanish
Internet
broad
duty
under@@
côté
réseau
les,
seraient
Mr President,
l'une
’
border
voix
genre
competitive
poor
ca@@
Cet
d'améliorer
oral
world,
années.
citizens,
wants
offre
member
civile
tin@@
l'élargissement
juridiques
competitiveness
produced
ran@@
laisser
Conférence
supply
ats
longtemps
réalisation
porter
loc@@
tés
big
x
issent
entirely
mises
condu@@
sectors
demands
mécanisme
Palestinian
lin@@
obviously
transition
probably
France,
concrete
ambitious
establishment
efficiency
uvre
implique
soins
problem.
l'ai
l'homme.
els.
traite
devront
Malheureusement,
summit
té.
up@@
asking
An@@
raise
e;
van
closer
17
qu'au
one,
encore,
étrangère
self-@@
Mon
politiques,
May
direction.
place,
procès-verbal
arguments
law,
ma@@
supplémentaires
June
an.
Nevertheless,
businesses
elles,
continu@@
ari@@
alimentaire
effectively
ail@@
Or,
limit
compétence
proposal,
consommation
liées
Green
nu@@
animaux
acteurs
comprehensive
position.
gas
Some
ties
maintien
expression
constitu@@
aims
ele@@
monde,
party
I,
ports
cl@@
happy
figure
facing
exactly
au-delà
faisant
contact
experts
added
claire
dealt
programme,
16@@
estime
Unfortunately,
état
d'ici
accepted
l'adhésion
questions.
ds,
ate,
Is
sens,
laid
king
mécanismes
then,
nationale
issue,
auprès
procéder
knowledge
dispose
recognition
ta@@
matter.
opening
recours
Ladies
auxquels
ach@@
proposer
8,
unemployment
publiques
presque
individu@@
study
reading
invite
européennes.
ceci
strongly
organis@@
16
anything
known
Ch@@
l'esprit
and@@
Le@@
statements
remember
putting
consideration
lecture
souligne
administration
parlé
faudra
actes
addition
acc@@
fall
drawn
ba@@
d'abord,
South
l'initiative
liber@@
article
milliers
Agreement
tor@@
vais
entre@@
s’est
seek
représentent
Premier
attempt
innovation
faudrait
l'ont
ère.
trust
sa@@
comments
lu@@
peuples
ailleurs
monnaie
ad
isme
18@@
areas.
gen@@
purpose
pas@@
Mo@@
growing
méthode
sait
convergence
speaking
Middle
aujourd'hui.
negative
ira
Messieurs
infrastructure
sérieux
juin
faire,
By
des@@
week
bear
défi
contributions
jours
souhaitons
Th@@
Ireland
dossier
version
Co@@
useful
inform@@
commitments
Mme @@
égard
sent
First
send
ary
col@@
Prime
6,
2020
development,
fondamental
House,
myself
will,
formes
issues.
mondial
Y@@
prochaines
isation
WTO
unable
integrated
hu@@
support.
too.
mainly
ateur
ise,
tic@@
montant
recommandations
rées
celle-ci
merely
mort
positif
l'encontre
Indeed,
lors,
because,
agreement.
principalement
tic
discuter
onn@@
Even
media
ering
examine
mutual
ente
system,
measure
198@@
actuelle,
populaire
Italian
naturellement
fund
original
equality
unacceptable
demandons
contraire
co-@@
enormous
submitted
name
ues
points.
sensitive
leading
Minutes
conciliation
Mediterranean
connaissance
l'intention
l,
January
utile
applies
génér@@
yeux
can@@
Russian
critical
entreprises,
appliquer
entièrement
attirer
fera
assure
crimin@@
organised
sécurité,
crisis.
serve
CO2
por@@
route
relationship
Même
êtes
sensible
forget
contraire,
représentant
thinking
sociale.
bio@@
modifier
contains
ante,
as,
elles.
sion,
work@@
parlons
visa
ante.
Commissaire
reason,
constitution
dou@@
technology
parti@@
th
Amendments
renewable
ateurs
soutenu
élevé
elected
threat
2006
pé@@
finance
pa@@
mérite
correct
/200@@
Turkish
word
sk@@
r
press
sor@@
risks
7,
seem
spirit
gar@@
low
sociale,
portant
année,
compensation
Now
har@@
Ex@@
particulière
nés
build
lumière
eux,
ités
came
Assemblée,
député
l'information
managed
Many
faisons
D
communautaire.
prend
spécifique
outcome
l'action
oublier
l'A@@
â@@
erai
developments
regime
penser
accorder
ors
are@@
differences
borders
États-Unis,
aborder
janvier
Health
crisis,
contient
damage
reconstruction
seriously
dangerous
transparent
débat,
orientations
probablement
adop@@
legislation.
n'ai
lement
thousands
l’homme
faits
introduced
reality
Aujourd'hui,
(ES)
change.
tée
House.
débat.
voire
Que
totally
politiques.
(The
Affairs,
elements
d'énergie
war@@
Bank
ajouter
ine.
sécurité.
l'absence
range
produ@@
Comment
commun@@
500
est@@
bringing
protocole
lorsqu'il
parlements
bal@@
informed
pan@@
area,
ought
coût
quelles
z,
stocks
pres@@
nucléaire
thought
ber@@
product
signed
substantial
continuing
demandes
red.
includes
établir
initial
ful
delegation
worked
enne,
tes@@
conflits
II
conclure
taxes
té,
née
atteint
2007
os
budgétaires
Monetary
ded.
improved
ons-nous
réfugiés
considérer
continent
y?
structurels
J’ai
ites
l'Assemblée
extend
méthodes
understanding
potentiel
agricoles
properly
comple@@
limiter
/0@@
dernier,
disposer
extension
prêts
ables,
vote,
contexte,
Council's
society.
d'aide
internationales
Structural
Balkans
ble,
pourtant
pour@@
happened
ness
avenir
aliser
soutient
th,
mot
(RO)
actual
21
home
ds.
thème
supports
told
exprimé
hi@@
destruction
cal@@
sement
linked
problems.
involving
concentrer
observ@@
getting
lives
technique
bénéficier
terme,
resolve
longue
day,
chances
l'avis
ais@@
entreprises.
décider
',
satisfaction
m.
empêcher
ver
pension
Traité
petits
expenditure
chefs
infrastructures
judicial
read
wrong
company
speech
respect,
reduced
leaders
recommendations
2004
ate@@
2000,
desire
armes
communes
patients
arrive
sen@@
changer
ies
truly
ty
contre@@
prévu
idée
24
auront
équilibre
definition
Certains
a's
though,
process,
utilisation
og@@
relatifs
adequate
d'État
montré
official
liberalisation
s'en
consistent
convaincu
corruption
now.
enne
ated,
enc@@
protecting
faced
ke
dis
climatique
absence
Depuis
j’@@
fic@@
cooperation.
br@@
modifications
délai
idées
revenir
forced
viens
import@@
cher
eux.
faite
»,
normal
estimons
Treaty.
termin@@
cover
says
position,
et.
greatest
servir
É@@
immediate
economy.
simplification
Portugal
Ar@@
étape
ct@@
agreement,
areas,
ck@@
o.
60
grateful
k.
flexibility
ir
conclude
failure
d'information
Europeans
opposed
val@@
existence
our@@
eurs,
l'amélioration
l'avenir.
jour,
industries
oeuvre
M
consommateurs.
ise.
ents,
pied
mois,
laws
té@@
immigrants
sions
secure
bles
l'argent
ess@@
Africa
iser
African
faciliter
(
ling
véritablement
conference
ate.
confrontés
détermin@@
prochain
adopting
qu’une
champ
capit@@
bou@@
9,
qu’un
series
teurs
out.
d'en
examiner
m,
enterprises
port@@
fonctionn@@
body
activity
New
region.
collective
discours
hor@@
commune.
intend
interventions
history
insister
seeking
analysis
do,
affaire
Why
strict
option
improvement
devait
interven@@
critique
limites
cen@@
sign
Avec
highlight
environment.
Ainsi,
Thirdly,
starting
concerned.
ready
11@@
authority
gra@@
taxation
maladies
2009
sol@@
disposons
ic
Li@@
Bo@@
person
Lorsque
migration
Ma@@
fins
surtout,
event
accep@@
lieu,
regrettable
(EL)
language
change,
General
b
Ber@@
ances
britannique
jou@@
ord@@
y-@@
sentiment
dic@@
exploitation
l'autre
garanties
Public
public.
ves.
réalité,
sion.
Dès
Israel
l’on
gh@@
stratégique
charges
fon@@
sion
l’é@@
Treaty,
Eastern
aurons
l'introduction
solution.
moindre
ism
militaire
faites
bodies
designed
id@@
ori@@
tackle
Charter
ction.
En@@
complex
Brussels
diversité
19
fear
Mon@@
Pourquoi
Question
ine,
démocratiques
échanges
d'Europe
région.
ones
d'éviter
ality
puissions
thereby
j'aimerais
justice.
2010
Merci
easy
defend
limite
l'environnement.
marché.
tre
der,
l'en@@
test
sound
involvement
comply
involve
euro@@
médias
shared
ct
prevention
While
réalisé
exist
l'évolution
addressed
end,
back@@
wishes
quement
guarantees
No@@
efficaces
animals
consommateurs,
happen
measures.
anc@@
alimentaires
bilateral
justement
fasse
enter
Lisbonne,
étude
véhicules
burden
centres
contribu@@
Swedish
appear
degree
supplémentaire
um
commen@@
Po@@
Summit
compagnies
fish
finalement
assu@@
the@@
methods
devrons
sujets
recommandation
tées
exercise
vertu
produire
failed
transport,
sp@@
remarques
haute
i.
2008
eurs.
bas@@
Ukraine
at.
médicaments
acts
négociation
weeks
flexible
souhait@@
UK
O
2005
san@@
ou,
femmes,
ed@@
combien
23
ner@@
evidence
Amsterdam
traités
terrorist
detailed
divers
ally.
dirigeants
ises
comm@@
distribu@@
européennes,
u,
reject
stable
explain
d?
lég@@
1er
accidents
child
lost
Van
red,
cti@@
covered
activité
tandis
regulatory
campagne
80
appeal
l'opinion
excessive
ions
petit
approuvé
protection.
humanitaire
staff
ideas
essentielle
mu@@
bien,
agences
savez,
l'état
pauvres
conditions,
gener@@
mars
De@@
á@@
Tous
rendu
amongst
gouvernance
Lisbonne.
coup
parlementaires
An
préparation
ens.
globale
tous,
resolution,
règlements
favoriser
suffit
pai@@
March
tera
compar@@
ennes
attendre
l'euro
ir.
continues
groupe,
relever
Only
contacts
ences,
eaux
pén@@
cap@@
mai
da@@
Such
espace
MEPs
mechanism
euse
export
ical
fiscal
l'avenir,
producers
nement
n'était
CE@@
democracy,
emphasis
run
rappelle
sign@@
affect
Inter@@
essentiellement
enne.
Ministers
considérable
meilleures
rates
serons
measures,
uses
nées
ères.
ité@@
èrent
obtenu
rail
lower
crises
ting,
recommendation
entes
avancer
sal@@
religious
lines
others,
réelle
logique
rec@@
00@@
critiques
North
efficacement
bases
ably
regrette
method
followed
mots
group,
contrôler
ste@@
neither
ay@@
operation
car,
ded,
mobilité
ang@@
d'assurer
compliance
colleague
soutenons
decision-making
hier
bar@@
déterminer
environ
sport
election
Troisièmement,
gave
bad
Assemblée.
argument
l'ex@@
m’@@
worth
unfortunately
pourrions
destinés
flexibilité
celui-ci
standard
ell@@
réponses
différences
mechanisms
fai@@
States'
population.
ement,
Those
futur
Commission’s
eur,
diverses
initi@@
financer
Rule
istes
interesting
(SV)
you.
presence
y;
tique
suppression
From
197@@
advantage
là,
met@@
lancer
arms
22
responsibilities
gre@@
totale
Western
j'estime
expected
criminalité
inclusion
conventions
imposer
1.
tourisme
proposing
case.
conduite
exactement
résolution,
lies
discharge
remarque
Trade
monitor
augmenter
policies.
vari@@
démocratie,
recognised
nécessaire.
action,
Paper
domestic
également,
later
Greek
substance
industry.
profiter
Luxembourg
appar@@
législatif
fermement
faible
isi@@
entry
win@@
circumstances
credit
binding
l'éducation
commune,
trouvent
talks
inform
ain@@
obtain
there.
obvious
est-il
professional
poids
Européens
ordre
proposition.
whilst
travel
EC@@
ani@@
ters
appears
d’être
seuls
element
ble@@
navires
ig@@
fortement
discu@@
Democrats
viennent
restent
traffic
comprends
humains
vely
cle@@
Legal
rédu@@
emb@@
facilitate
safe
head@@
granted
Socialist
moi-même
payer
inst@@
missions
placed
persons
dehors
acquis
attendons
rapid
(Applaudissements)
rai
(Applause)
compli@@
dra@@
str@@
Barroso
matières
context,
opérations
cent@@
dro@@
d'application
Mal@@
d'adopter
domaine,
Belarus
fighting
social,
spent
applicable
jour.
commerciales
l'élaboration
Group,
y:
well-@@
distinction
lois
issues,
glob@@
mandate
network
l'immigration
rais@@
targets
utilisé
fa@@
premières
contr@@
étrangères
iste
sexual
ves,
(Le
gender
Iraq
Commission@@
ha@@
solve
mettent
durée
réserve
evaluation
(A5-0@@
Livre
ences
sens.
ju@@
constitutional
chiffres
debates
deman@@
Royaume-Uni
constituer
égard.
ahead
entendre
entreprise
acte
keeping
conduct
ille
préserver
delighted
eng@@
finances
choice
income
speakers
immediately
currency
moving
rem@@
Ro@@
l'im@@
figures
200
port
réaction
ar,
today's
ellement
ks
auxquelles
utilisés
annu@@
moment.
allowing
es'
impression
concrètes
Germany
helping
catastrophe
presse
repeat
fs,
let@@
democracy.
ty@@
justice,
chemin
terme.
accompli
Strasbourg
earlier
Stability
2003
centr@@
heures
prennent
exige
mauvaise
d:
innov@@
transport.
Nord
justifi@@
Agenda
suffering
sujet,
itself.
R
programmes.
vivre
décharge
dernière,
préparer
amélioration
office
inten@@
santé,
reprises
plac@@
rejected
cycle
information,
den@@
explo@@
tel@@
Czech
scientifiques
cooperation,
fier
environment,
problem,
ising
payments
functioning
interested
air@@
multi@@
temporary
Di@@
2000.
y'
arri@@
L'Europe
J'estime
ères,
believe,
suff@@
0,
reasonable
ég@@
practices
conditions.
ess
pe
2002
reven@@
idé@@
climat
ised
People's
negotiating
c'
ences.
tal@@
l'espace
spéci@@
heart
formul@@
vois
refugees
poursuite
immédiatement
th.
cur@@
compte,
cau@@
vaut
trou@@
os@@
numerous
speci@@
Programme
Étant
ne.
arrangements
subventions
Israël
sed,
industry,
resolution.
indiqué
novembre
bil@@
Kyoto
massive
combattre
vous,
rac@@
mobil@@
principales
né@@
imposed
parvenus
expérience
likely
antes.
2006,
naturally
ctions
reflect
citoyen
association
got
origin
traditional
permettent
0
communications
proportion
minorités
happening
progresser
international.
ir,
trafficking
associated
approval
appliqu@@
glad
temps.
public,
Greece
encouraging
l'échelle
anyone
ard
resources.
tous.
réglement@@
economy,
According
participate
minutes
women,
Another
wi@@
communautaire,
offrir
ron@@
target
Su@@
J'aimerais
link
offici@@
régionale
reprise
written
safeguard
options
mati@@
évolution
orient@@
popul@@
l'impact
êtres
Iran
notion
d'informations
fying
Roumanie
reply
fondamentales
revient
ceux-ci
representative
security,
cas.
,@@
femmes.
tiers.
September
transfer
forthcoming
implications
vouloir
auraient
accepté
ser
objecti@@
bien-être
2004,
payment
31
internationale.
lim@@
intentions
mas@@
l'augmentation
November
employment,
Agriculture
sed.
post@@
rejet@@
ist
termes,
Sch@@
étroite
problème,
connu
attention.
quels
députés,
fraud
judiciaire
retour
26
Quant
to,
internationaux
atten@@
Romania
si,
lien
ages,
independence
Plus
importance.
Europe@@
femme
ethnic
citer
m'a
necessary,
ple@@
viande
portée
destinées
relève
Presidency,
T
n.
réalisés
protection,
board
ECU
als,
conséquence
endorse
main@@
nécessaire,
septembre
technological
trouvé
Cor@@
l'accent
Financial
dependent
marché,
started
resolutions
l’a
2009.
leg@@
conclu
bles,
separate
questions,
app@@
products.
have,
tement
déposé
contained
moitié
Bruxelles
signific@@
inacceptable
den
contribué
heures.
1999,
garder
improvements
fix@@
customs
PME
d'obtenir
indic@@
gone
done.
ric@@
Avant
supervision
expliquer
Action
Today,
communautés
ground
voluntary
avi@@
1998
démocrates
200@@
fixer
annuel
peaceful
d-@@
equally
cul@@
frais
well,
cohérence
Charte
statistiques
prépar@@
environnement
organismes
signaler
do.
proposes
x,
a-t-il
ff@@
vert
petite
sup@@
recevoir
tests
relativement
criticism
euros
parlement
L'
Lastly,
règlement,
revenus
paraît
demonstrate
emploi
considérablement
adoptées
ction,
bro@@
fied
viv@@
C'
again.
technologie
Despite
easier
dépit
carefully
examin@@
Not
respec@@
day.
articles
legislation,
Com@@
collègue,
man,
y's
esti@@
exécu@@
connaître
learn
banques
controls
apporte
fl@@
changed
géné@@
l'emploi.
2.
langues
Agency
ain
EU-@@
vit@@
membership
iti@@
minority
g,
raison,
d'autant
Barroso,
mondialisation
alism
continued
declaration
concernent
h,
ite,
initiative,
nation
alone
vivent
trading
planning
1.@@
autour
fail
manage
tive
weapons
firm
security.
procedure.
part.
lettre
semaines
be.
qui@@
matière.
sept
ings,
tonnes
who,
Framework
l'engagement
cesse
règle
cœur
que@@
pollu@@
meetings
limit@@
information.
attribu@@
moral
PPE-DE
mentionné
assume
space
départ
langue
passagers
constate
fs.
(E@@
primarily
s'y
Portuguese
defined
famille
October
ê@@
2009,
fut
cultures
tried
approve
d'asile
soit,
supprimer
détermination
clé
équitable
played
Sans
legitimate
ked
plenary
l'exercice
initiative.
entrer
part@@
Given
économiques,
oppos@@
proposition,
X@@
tons
must,
refuse
Research
mat@@
modern
octobre
calendrier
treated
tendance
retard
pourquoi,
vaste
(HU)
fond
souhaitent
production,
envisager
citizens'
pêche,
Policy
demonstrated
sites
concentr@@
appe@@
l.
transfert
biens
ajou@@
fraude
super@@
be,
voice
appropri@@
revêt
capacités
speed
permet@@
quer
2001
tres
peoples
États-Unis.
bles.
regions.
crédibilité
Roma
tou@@
apporté
tru@@
governance
permettrait
grounds
pouvait
collecti@@
lose
porte@@
realise
compter
minim@@
réfléchir
hol@@
locales
Ma
trac@@
limits
dri@@
unless
catastrophes
competence
cra@@
involves
networks
entitled
essentiels
n'existe
différence
l'évaluation
asi@@
existent
firmly
amounts
suiv@@
enfin,
culture,
capables
Au@@
Prodi
l'approche
bur@@
résolutions
consommateur
cher@@
5%
gain
recherche,
études
évoqué
modernisation
Members,
programmes,
amendments,
favorables
abilité
régimes
d'établir
donc,
2007,
?uvre
pol@@
wor@@
credibility
hausse
cas@@
l'avons
commerciaux
l'emploi,
organes
28
tis@@
acting
Yet
problems,
semblent
society,
ici@@
libér@@
transactions
complète
préoccup@@
réflexion
Bureau
administr@@
High
démocratie.
confir@@
d'en@@
adresser
s'ils
sexu@@
employment.
St@@
Concernant
familles
prove
SE@@
commissions
attend
als.
introducing
ages.
st
préoccupation
Chinese
allows
conservation
scientifique
fre@@
Baltic
ayons
envisag@@
prom@@
identi@@
agencies
up.
ains
enfants,
ins@@
sc@@
est.
goal
2010.
preventing
vite
ze
factor
2005,
tenter
Dé@@
law@@
ship
aurions
général,
policies,
compared
débattre
Ne
gl@@
préciser
pass
stand@@
complètement
cases,
fondée
Lors
Grèce
associations
dly
inv@@
Do
mass
star@@
évidence
visit
else
l'organisation
yesterday
ear@@
electronic
ently
rer.
Environment,
conclu@@
ouverte
humaine
confirm
plein
suggest
chi@@
facteurs
parliaments
whatever
réussi
côté,
2003,
Dutch
ton
Malgré
allocated
sides
requirement
réunions
highest
commentaires
terrible
sérieusement
euses
regions,
production.
cela.
):
preparing
réserves
tard
mou@@
Car@@
population,
conviction
loss
ities
proposée
publi@@
connaît
ç@@
opportun@@
Intergovernmental
places
joue
parties.
prepare
decisive
A,
recovery
sin@@
accrue
obstacle
règlement.
nor@@
He@@
�
î@@
ures
att@@
round
Perhaps
erreur
ement.
Fundamental
far@@
undoubtedly
2008,
ge.
region,
applying
savez
ère@@
(H-0@@
up,
hon@@
generally
attacks
3.
drawing
J’@@
otherwise
felt
l'entrée
ago.
pensions
cho@@
d'emplois
amélior@@
fonctionnaires
Or@@
demain,
enfants.
isol@@
territorial
parents
considering
negotiations.
dispos@@
télé@@
national,
disaster
ités,
relates
also,
offers
public@@
Ensuite,
education,
intégration
alli@@
correctement
facteur
eur.
dumping
terroristes
campaign
année.
extérieure
jeu
installations
répartition
bel@@
principle,
textes
constantly
accroître
forward.
montrent
fication,
economies
ES@@
l'obligation
support,
alement
tradition
intégrer
constru@@
satis@@
insuffis@@
25@@
ités.
soumettre
socialiste
somewhat
occasions
finding
principale
ide@@
perdre
d;
ignor@@
closed
négoci@@
taxe
établi
wh@@
aid,
matter,
wide
sépar@@
des,
pat@@
pêche.
Mais,
qualified
précis@@
30@@
esprit
1997
conscients
70
oul@@
sea
together.
centrales
July
d'intérêt
mobility
contrary,
minute
marchandises
(A4-0@@
conclure,
mes,
reli@@
l’ensemble
Kingdom
aut@@
mode
intervenir
santé.
maladie
passed
hors
largest
introdu@@
aid.
délais
jobs.
modifi@@
exception
prévenir
women.
présentée
tentative
freedom,
concentration
alise
réglementations
ignore
dus
Israeli
letter
suggestions
Consumer
transform@@
tobacco
conséquence,
mauvais
nous.
ce.
militaires
subsidies
voulu
ke@@
réussite
facile
ance@@
approach.
fondamentale
other,
difference
respecte
2010,
nucléaires
spoke
n’ont
trait
diff@@
w
prête
juillet
Russie,
attack
circonstances
excellente
forum
Kar@@
Energy
holding
ge,
we@@
problèmes.
willing
améliorations
necessary.
augment@@
Nice
anim@@
proposals.
accident
emergency
acti@@
agenda.
division
cru@@
meilleurs
largely
ning
euro.
top
effectiveness
fulfil
operate
d'y
historic
define
families
énergies
consolidation
raient
instance,
efficacité
résolution.
Transport
engage
appreciate
prévue
pursue
awareness
rules.
contribue
l'intérieur
visas
diversity
tro@@
labelling
drugs
Sud
ically
CE
passage
d'origine
intends
applau@@
force.
ï@@
continuent
treaty
efficace.
question@@
Alors
d'urgence
led.
Rights,
)@@
resources,
revision
spending
tourism
2006.
Italy
constant
cooperate
ici.
inf@@
obten@@
tour@@
ting.
has,
mettant
joué
adhésion
ret@@
examen
fications
j'
Be@@
priv@@
Portugal,
ensemble.
Commission'
souten@@
operating
voisins
international,
abord@@
volume
proposés
Pourtant,
introduit
ry
introduire
EC
Go@@
maintaining
év@@
Constitutional
committees
2007.
clarify
ist@@
ensemble,
visent
personnes,
menée
ture
29
dictat@@
ches
indique
represented
précise
inquiétudes
seconde
plus.
ia
basis.
ambition
institutionn@@
s -
overcome
famili@@
saw
l'ouverture
construire
inclure
23@@
énorme
région,
paix,
image
incombe
lancé
disponibles
atives
export@@
Ad@@
exercer
ings.
life.
menées
seu@@
rend
welfare
leadership
vulnerable
»@@
brings
concitoyens
plénière
paiement
fruit
posé
tent@@
fun@@
B
operational
mois.
formuler
exclusion
assess
calcul@@
signé
firstly
itself,
autres.
factors
determined
amending
gérer
wa@@
touche
intérieur.
importations
submit
strategy.
aliments
certes
believes
stabilisation
considérons
ouvert
évaluer
2004.
isse
entend
Alliance
Vi@@
firstly,
nationaux.
amendments.
ultimately
premiers
elle-même
rera
proved
appropriations
more,
Maastricht
durable.
points,
arm@@
industri@@
concernés
Because
Kosovo,
l'Organisation
oppose
read@@
Pol@@
stratégies
clo@@
works
distin@@
pou@@
fais
urgently
playing
Spain
d’accord
inclu@@
floor
liberté,
hal@@
médi@@
territory
laisse
gan@@
paiements
regulation.
America
directrices
proceed
Afghanistan
seven
fiscale
reti@@
fuel
products,
bas
tés,
Europol
ème
n’y
phénomène
sit@@
noted
oni@@
stade
huit
char@@
sau@@
oper@@
ously
dépend
propriété
alised
exclu@@
unfortunately,
ablement
pêcheurs
personally
clear,
change@@
Heads
travaillé
Commissioner.
tés.
concluded
denrées
sel@@
reasons,
vie.
tâches
L'UE
dynam@@
plaisir
regulation,
ore
liée
marge
usage
vement,
producing
perfectly
kept
ressortissants
importante.
seeing
adopte
dignité
Qu@@
vehicles
spoken
Latin
habitants
4.
whole.
évalu@@
alternatives
domin@@
d'utiliser
issant
indeed,
vent
dons
E
créé
suppose
planned
intensi@@
dent
consumption
1996
ators
fil@@
coordinated
politicians
impliqu@@
croire
proche
mark@@
we,
tional
lib@@
diminution
ambitieux
Russie.
lé@@
hear@@
u.
nég@@
associ@@
genuinely
Chamber
exig@@
lui-même
qu’à
tellement
tiques
result,
chef
Bulgaria
sion@@
ite.
record
dispar@@
activement
made.
informer
arriver
hours
considéré
bour@@
actuelles
late
ty,
2008.
ch,
cli@@
profits
debt
conduit
contre,
cer@@
extended
mes@@
manner
announced
authorities.
medical
partout
deb@@
livre
pens@@
as.
passé,
l'histoire
progressive
j'en
things,
l'établissement
judici@@
garanti@@
apparaît
debating
mondiale.
législatives
nécessaires.
antes,
dési@@
considérables
cont@@
pon@@
mark
élaborer
lie
people's
Copenhagen
consul@@
Parliament’s
partner
essayer
waiting
provenant
ty.
ow@@
lat@@
mentioned,
centaines
courant
health,
provenance
l'existence
puis@@
Sea
Berlin
resulting
April
Bulgarie
garde
présidents
Strategy
not.
d'atteindre
ferme
qués
tasks
Sou@@
transit
tour
sufficiently
agit
investments
conserv@@
requested
offered
authorities,
aine
markets.
personn@@
félicit@@
prê@@
éri@@
interdiction
SMEs
claim
él@@
sets
average
sortir
primary
condemn
certain@@
fonctionne
premi@@
not@@
qu’elles
rapporteurs,
visite
confirmed
force,
More
2002,
shadow
ther@@
conseil
enquête
ind@@
assumer
compatible
nevertheless
z-@@
conf@@
précédent
knows
actuelle.
poursuiv@@
possibles
travaillent
proposées
tiers,
générale,
regular
hé@@
basée
mené
tôt
wonder
tran@@
insist
globalisation
innovative
Vice-President
(vote)
actively
objectives.
pouvez
communities
démocratique.
transposition
internationale,
described
remarquer
soyons
orateurs
?@@
tradu@@
mentionner
Cyprus
Hungarian
d'avis
repose
USA
Comité
Pact
Internal
leads
maintenant,
land@@
margin@@
stronger
perdu
gn@@
La@@
degré
present,
Mrs @@
Gu@@
tionn@@
changing
répercussions
path
beaucoup,
Northern
textile
régler
l’aide
energy,
aff@@
régionales
pass@@
devient
prévoir
déficit
90
l'an
Quand
français
cancer
attach@@
n'ait
universal
soi
Employment
Kosovo.
insurance
dangers
PPE
commission,
historique
driving
tric@@
Food
300
neighbouring
législative
ress@@
should,
Turquie,
ette
pic@@
State.
tw@@
term,
precise
ll@@
entr@@
Minister,
guaranteed
disposent
considers
delay
ongoing
teur
ente.
fication.
procedure,
bons
Before
isent
mains
celles-ci
1999.
pense,
aviation
perte
réel
During
allocation
least,
unique,
personnellement
l'origine
respect.
ment:
latest
CI@@
absolute
les@@
to.
référendum
sert
remettre
24@@
observation
grant
v
environnementale
wait
Funds
sincèrement
united
secondly,
standards.
demain.
euro,
acknowledge
conver@@
liens
cting
Once
terrain
please
month
trouvons
becomes
différ@@
des.
regul@@
accord.
terms,
tête
ous,
exprime
exemple.
constitute
formal
health.
l'E@@
hope,
sti@@
commencé
observations
accorde
entend@@
atif
violence.
reconnu
material
human@@
colleague,
pratiquement
tenue
observe
Un@@
anci@@
C5-0@@
Last
homme
clauses
conflicts
anciens
z.
ck
ques@@
rich
signature
commissaires
cri@@
alisme
bientôt
vol@@
goals
titre,
bre@@
qualifi@@
occup@@
violence,
invest
l’accord
vivement
UN@@
majeure
pe,
ue.
quo@@
systems.
auto@@
right.
Pakistan
teront
other.
scale
mainten@@
ressort
hands
ber
environnementales
signe
qu’en
pli@@
said.
condition@@
careful
White
avril
secret
étroitement
avancées
directe
a-@@
Without
temp@@
souveraineté
External
prenne
commissaire,
prévues
pun@@
Regional
c,
visi@@
reprendre
thanking
abordé
espérer
Lu@@
transitional
Consequently,
others.
baisse
ais,
legally
(C@@
intéress@@
duquel
terrorism.
ministers
PE@@
conserver
mod@@
ga@@
paix.
significantly
reconnaît
actuels
échange
referring
prison
Are
sées
exportations
disease
uti@@
latter
daily
officials
exemples
2001,
ouver@@
susceptibles
Du@@
F
oblig@@
President.
voit
partenaire
industrie
dit@@
Auditors
consultations
published
saluer
sée
re:
traditions
urban
groups,
ative,
pris@@
room
friendly
dialogue,
l'impression
pleine
derrière
respecti@@
Then
children,
conforme
enjoy
someone
understood
pressions
27@@
formulation
prati@@
tool
[@@
eri@@
professionnelle
l'interdiction
employees
CO@@
raisonnable
reflète
crise.
venir.
end.
suffer
religion
Se@@
discrimin@@
postes
intérieur,
venu
negoti@@
quent
ouvrir
contradiction
ets
competition.
vé@@
went
ct,
maxim@@
Rapport
example.
top@@
Bar@@
subsidiarity
choose
çant
réagir
aire@@
intensive
front
veill@@
Russia,
cons@@
2005.
illi@@
valuable
ration@@
/9@@
extérieures
affirmer
tax@@
declared
reg@@
onner
qu'a
indiquer
concentrate
rend@@
connaissons
regard,
embar@@
arrê@@
affairs
polic@@
non@@
tiennent
composition
sav@@
accordée
ances.
tab@@
Convention,
présents
commerciale
unique.
ä@@
mention@@
banks
équi@@
partly
rer,
imports
qué
affects
chan@@
ajoutée
(SK)
condam@@
récente
réside
Irlande
(CS)
vement
oli@@
committee,
coherent
ms
imagin@@
tar@@
qualifications
comportement
conception
cohér@@
attend@@
intellig@@
operations
7.
performance
déclar@@
proposals,
équilib@@
remarks
appartient
research,
mobilisation
analy@@
enlargement.
Having
Mc@@
c.
tenus
flux
meant
199@@
strategy,
également.
comporte
Policy,
carrying
undertaken
referendum
NATO
fixé
engager
lié
compulsory
ative.
unfair
revanche,
remove
Convention.
cat@@
alement,
adéquate
réserv@@
examples
liv@@
raising
l'innovation
orientation
réduit
ice
il,
obliged
Im@@
eux-mêmes
exists
jours,
régional
harmonis@@
ci,
interne
done,
vie,
responsibility.
habitu@@
guaranteeing
multilateral
5.
wider
identify
attempts
a-t-elle
approach,
positifs
x.
morning
National
bout
destiné
terrorisme.
details
atory
chose,
urg@@
codecision
voy@@
origin@@
PSE
provi@@
spite
bul@@
protected
droit,
concurrence.
ur,
ambitions
avancée
any@@
Austrian
farming
généralement
routi@@
possibly
ence@@
months.
l'eau
Per@@
Common
étrangères,
destin@@
nationaux,
tenant
ous.
parties,
Car
permettront
envisage
comprend
head
Union’s
trouv@@
honour
terrorism,
practice.
détriment
alité.
favourable
accepte
budgétaire,
ship@@
partag@@
approuver
competent
/2001
children.
carbon
enough.
dette
adap@@
viable
definitely
ore@@
cohérente
l'Agence
salari@@
ances,
engag@@
imagine
rage
cted
rent
tez
irait
d'emploi
progress.
29@@
attr@@
hy@@
near
individuals
themselves.
organ@@
agriculture,
fine
élargissement
s’il
Sweden
bénéfices
ges
um@@
ONG
dépend@@
soir
seeks
politically
invo@@
legisl@@
l'OMC
accord,
rap@@
statistics
égalité
freedoms
Can
report@@
detail
rules,
willingness
élev@@
aérien
tiendra
abuse
35
terrorisme,
right,
For@@
milli@@
critic@@
southern
publique.
eastern
ation:
listen
prud@@
oun@@
re?
purely
ton@@
confusion
fait.
(Christian
contribuera
comb@@
disant
State,
administratives
oubli@@
Afrique
amen@@
claires
8.
interests.
Market
fy
scheme
villes
malheureusement,
determination
accessible
amendements,
counter@@
basis,
Danish
utilisées
présentation
autrement
Man@@
aris@@
clear.
pire
approprié
sive
armed
Belgian
répéter
than@@
resolved
assurance
fle@@
(A@@
culturelle
élevés
pétrole
decision.
prime
ving
préalable
opérateurs
nationales.
growth,
J’espère
mesure,
attendent
cy@@
exist@@
funds.
regarded
property
D’@@
tomorrow.
 -,
ties,
greatly
climatique.
direction,
identifi@@
section
satisfaire
chose.
mouvement
publicité
suggestion
dépendance
dée
ait,
jour@@
respectent
L'objectif
governing
So,
crédit
necessarily
-t-il
operators
exclusivement
d'apporter
profondément
d'aujourd'hui
discrimination.
quantité
erreurs
months,
C,
Chine,
d'adhésion
eur@@
sont,
tragic
ner,
ts@@
contradic@@
electricity
TE@@
outil
Presidency.
rich@@
s)
cep@@
solely
affirme
Turquie.
addressing
highlighted
barriers
suivante:
helped
accounts
extensive
leader
radio@@
relatively
concernées
Cas@@
Organisation
nent
rement
l'inter@@
running
Does
involved.
minorities
preparation
ation;
religi@@
droit.
d'agir
perman@@
cel@@
ic,
mb@@
201@@
workers,
puissance
year@@
ast@@
one-@@
olo@@
suffered
stock
statu@@
extending
occu@@
choisi
Her@@
unies,
organiser
const@@
Today
véritables
aro@@
futures
interinstitutional
extra
deliver
ü@@
Subject:
science
studies
p.m.
insul@@
VAT
diplomatic
release
abolition
mer.
regret@@
l'exploitation
citizen
entraîne
J'en
paroles
consumers.
it-il
there,
applications
juridique,
radic@@
view.
TA@@
purement
Cam@@
alité,
l'exécution
solution,
determine
satisfied
AC@@
agreements.
publication
apart
land,
levée
né
realistic
frontière
représentation
contain
motions
consci@@
drug
briefly
50@@
(LT)
opinion.
démarche
would,
promo@@
terre
motiv@@
vic@@
surely
aver@@
sensi@@
arti@@
prêt
ville
observer
poorest
secteur.
personnes.
whereby
voient
Peut-être
tempor@@
ras@@
bra@@
lou@@
migrants
tend@@
correspond
spread
suitable
generation
Ou@@
gros
built
ain.
son@@
l’importance
nécessite
deals
econom@@
dialogue.
argu@@
intern@@
healthy
espoir
UE
made,
Both
dist@@
prior
stric@@
dés
Toutes
Here
moyenne
Commissioners
hundreds
réussi@@
bit
déclare
site
negotiations,
organisé
quinze
participé
modes
détails
Home
enabling
difficiles
ep@@
ente,
safety.
choisir
spécial
(S@@
procé@@
Polish
2003.
limitation
majeur
justified
actions.
mondial.
mes.
renouvelables
thèmes
chargé
acted
chercher
Ab@@
Cuba
jobs,
CAP
milk
assist
fication
étendre
crise,
Association
évoqu@@
Suède
tabac
appropriée
ships
applic@@
aring
function
bir@@
economic,
expériences
bénéficient
links
chapitre
foncti@@
indication
intergouvernementale
ver.
four@@
trade,
matin
with.
micro@@
issued
lit@@
granting
ine@@
investir
ail
ar.
communs
meat
gran@@
revenu
uniform
société.
visible
enlargement,
1995
disent
exten@@
eight
continuera
on-@@
chosen
brièvement
develop@@
Growth
der.
(FI)
committee.
Donc,
sement.
tex@@
blanc
charg@@
Budgetary
ation?
20%
di,
Protection
its,
distance
d'accès
opened
cte@@
Pri@@
Res@@
l'examen
S'il
interpre@@
passé.
prendra
communication,
lay
deserves
enforcement
classi@@
brief
dites
reaching
paying
instaurer
launched
atteinte
chiffre
l'énergie,
remaining
connaissent
contrats
ats,
requests
conducted
milieu
focused
field.
Will
refus
général.
Cooperation
modern@@
expectations
sum@@
right@@
quée
Sommet
2)
ins,
soulevé
ish
dé
essentially
obligatoire
ont,
Canada
term.
conduire
Doha
happens
energy.
l’Europe.
neu@@
post-@@
uniform@@
however
moreover,
CA@@
catégorie
som@@
national.
thing,
est-ce
spend
social.
languages
subject.
vente
efficace,
issons
az@@
notamment,
d'argent
quota
intégrée
bon@@
heavy
restructuring
strategies
g.
économiques.
transformation
consacré
entered
together,
core
Where
complexe
vue,
européen@@
donnée
tan@@
revoir
Gaza
modified
geographical
ue,
l'activité
rejeter
s’
First,
l'équilibre
étions
depend
l'O@@
mind,
advance
memb@@
agents
think,
producti@@
irlandais
déb@@
abus
affecting
optimis@@
saisir
supposed
rapporteur's
2020.
d'A@@
législations
déroul@@
replace
0.@@
truth
Constitution.
conce@@
debated
1998,
convaincre
l’avenir
remplacer
essentielles
ting@@
c'était
autorité
Under
ards
enhance
blo@@
2002.
lier
adapt
ped
mondiale,
pac@@
Parliamentary
mental
mutuelle
ctive
négociations.
nécess@@
suggested
s'assurer
launch
Christian
crains
age@@
manqu@@
juridique.
Fisheries
attentes
6/@@
agency
exac@@
discuté
déclarer
biggest
investigation
confirmer
Ré@@
pren@@
professionn@@
for,
coopérer
green
Prodi,
yer
ravi
Saddam
Just
scène
ire
lever
plu@@
fishermen
l'indépendance
B5-0@@
eraient
’.
Rural
nettement
participants
inflation
d’abord
die
gro@@
prospérité
retirer
importante,
piece
restric@@
jus@@
colle@@
Germany,
fruits
intellectual
pertes
connaissances
territori@@
companies,
plant
groups.
February
Russia.
accord@@
Hu@@
ction@@
inquiétude
excessi@@
ours
with,
Centre
contrary
succeed
J'
reflected
coû@@
is:
discutons
matters.
bilan
ability.
demeure
8/@@
destinée
jo@@
difficulty
répon@@
rejet
whereas
porté
commerci@@
çons
answers
prof@@
déci@@
débattons
trade.
C.
ator
l’UE.
souhait
dation
Mor@@
constitutes
behaviour
sum
hauteur
pe.
tement,
mutu@@
elled
(La
tical
dam@@
gri@@
1,@@
gs
prenons
Constitution,
dangereux
culturel
portent
demanding
Tur@@
harmful
proof
aside
compens@@
refers
proté@@
collabor@@
intéressant
broad@@
country's
fir@@
rest@@
ordinary
organise
Pre@@
rant
numbers
entes.
politi@@
indépend@@
surmonter
experienced
dommages
importance,
crée
relance
politics
led,
avantage
ver,
al-@@
Joint
signifi@@
i.e.
commence
her@@
iz@@
Turkey,
cependant,
évidemment,
plants
compos@@
hearing
compréhension
extreme
ous@@
week,
Certes,
news
socialistes
dire@@
systems,
clés
dynamique
much,
amended
publique,
Ri@@
élabor@@
yeux,
institu@@
l'administration
exceptions
l'autorité
l'union
money.
considérée
passenger
z-vous
ship,
encourag@@
constaté
actu@@
programme-cadre
ability,
fin,
évid@@
convenu
depends
markets,
crime.
competition,
effectué
transparence,
discussion.
West
minis@@
Poland
Democrats)
principe,
appeler
feeling
significance
énergie
worthy
gap
greenhouse
radical
régulièrement
concurrence,
ited
sustain@@
recourir
environnementaux
women's
ories
patrimoine
Assembly
terons
ratifi@@
ram@@
dossiers
présentent
processus.
agreements,
précis
realis@@
contributed
indicated
ta
territoires
passengers
Affaires
ne,
dur@@
Qui
ks,
étudi@@
1997,
justification
actions,
unanim@@
prés@@
ite@@
s'agissait
proceedings
Its
diffusion
subsidiarité
utmost
duties
espère
sing
results.
d'appliquer
travailleurs,
somme
vérifier
success.
Nor
activ@@
prononcer
d'ex@@
President-in-Office,
parl@@
lors@@
ferroviaire
instance
situ@@
restore
EU@@
exceptionn@@
exploit@@
(P@@
historical
pratique,
possède
autoris@@
instru@@
fail@@
poste
Now,
dignity
avo@@
itali@@
ctu@@
attaques
marketing
EU’s
rédigé
devenu
touch@@
d'investissement
cars
concern@@
février
formulées
speaker
amis
d’avoir
jusqu’à
confron@@
past,
ature
supplementary
iv@@
diseases
actif
l'avez
2.@@
dem@@
mil@@
occupation
interpretation
fields
SA@@
hopes
climatique,
suspension
previously
Barcelona
discipline
garantissant
ful@@
démocratique,
presenting
dues
déposés
organisée
acy
needed.
ved.
cours.
bénéfici@@
funds,
clarifier
ini@@
turned
S,
aujourd’hui,
peace,
écou@@
exiger
ref@@
television
requ@@
continent.
bly
menaces
(Parliament
school
pouvant
sig@@
corps
electoral
ying
rail@@
affir@@
processes
Royaume-Uni,
about.
negotiation
remplir
transmission
commission.
Bu@@
40@@
immigration,
ash@@
marine
loy@@
worst
identified
mines
possibilities
remerciements
Merci,
table.
ish@@
bor@@
powerful
médiateur
sociales,
NGOs
abor@@
nit@@
gue
méritent
répondu
ain,
sem@@
d'examiner
total@@
China,
intérieures
safety,
amendements.
d’é@@
approuve
résolu@@
espèces
prisonniers
lab@@
penalty
unies.
Ko@@
capitaux
ann@@
6.
Europe’s
torture
l'intervention
of,
borders.
suppri@@
britanniques
text.
fondamentaux.
rapport@@
jug@@
India
dit.
fau@@
adoptés
occasion,
lut@@
disasters
voul@@
fréqu@@
easily
discrimination,
Dublin
ties.
potenti@@
accus@@
Chaque
/2001)
urb@@
prenant
qu'avec
automobile
ire.
routes
positive.
bearing
défend@@
milit@@
tangible
américain
éré
bureaucrati@@
voudrions
répé@@
welcomes
Pologne
um.
deeply
ordin@@
admettre
dénon@@
Civil
nationales,
commis
increases
l'Afrique
travailleurs.
cop@@
autor@@
démontré
violent
lev@@
annoncé
market@@
valu@@
générales
multilatér@@
prote@@
facilement
Government,
l’égard
utilisée
posent
leaving
save
looked
check
suffis@@
syndic@@
savent
reliable
Croatie
past.
s!
successfully
menac@@
EM@@
activities.
rappel@@
fairly
Nor@@
decision,
sovereignty
privé
instamment
particip@@
futurs
worse
entière
satisfait
négocier
chaîne
zing
refuser
oc@@
Report
sugges@@
cts
tomorrow,
terminer,
simplifi@@
engagés
efforts.
faute
contribuent
world's
applicant
l’État
regulated
Fin@@
paper
von
d’action
tard,
premièrement,
life,
aujourd'
voulais
ène
évoquer
Grâce
EUR @@
ory
Har@@
thè@@
d’euros
travail@@
quement,
innovation,
Dis@@
creates
hel@@
Memb@@
coun@@
ct.
vast
dernier.
salu@@
crédi@@
ls
workers.
voyons
fais@@
ess,
autre.
pal@@
industrielle
vement.
gag@@
demandent
appréci@@
vessels
lecture,
électeurs
pensent
ers'
fédér@@
clarification
reiterate
sud
codécision
Environment
exer@@
learning
détail
budgétaire.
réjou@@
fundament@@
lement.
prochains
heureuse
 000
soutien.
cite
26@@
growth.
tom@@
recall
proud
Corée
problématique
practice,
appuyer
veille
d’entre
strengthened
preuves
posée
spe@@
envoyer
reflects
moins,
nearly
contrô@@
succeeded
libéraux
analyses
resid@@
encourage@@
nomb@@
ss@@
Son
promised
américain@@
chréti@@
marque
ser.
radi@@
correspond@@
communautaires.
Chypre
drafting
aci@@
thorough
tenons
tienne
durable,
exemp@@
Following
suivant
applicables
rég@@
choses.
naturelles
ateurs,
equipment
ur
chang@@
heading
voitures
refer@@
fie
def@@
alisation.
Rome
ily
welcomed
showing
am,
interest.
instances
na@@
capitale
long@@
differ@@
l'expérience
soumise
od@@
prétexte
Safety
inviter
deficit
PAC
justifier
autre,
domaines.
intégr@@
expressing
ire,
organisations,
ary,
down@@
pillar
crois,
lasting
légitimité
satisfactory
l’un
tensions
aï@@
libre-échange
companies.
ors,
concrète
n°
énergétiques
falls
unacceptable.
Quelle
states,
L’Union
Budgets
accomplis
impro@@
ur.
exis@@
ene@@
alu@@
fonctionner
génération
Community.
onne
défin@@
d'aider
outils
Albani@@
écrit
ax@@
ouverture
45
entraîner
attaque
solide
d'intégration
oy@@
objectives,
minor@@
abs@@
execu@@
importants.
men,
parven@@
mérit@@
institution@@
hardly
réponse.
voies
stay
Char@@
plur@@
net
ment?
incorporated
Ag@@
significative
new@@
l’objet
ot@@
relations.
rée,
d'encourager
développements
eliminate
insiste
this:
élector@@
indi@@
ov@@
couple
Netherlands
stage.
navigation
stressed
tend
Ban@@
venons
fil
facilit@@
avanc@@
elections.
ade
cruci@@
reaction
productive
renforc@@
procédure.
minorité
seuil
um,
loo@@
Quoi
accordé
chairman
transpar@@
equ@@
l'unanimité
élaboré
puts
reality.
dirais
city
million.
vou@@
souci
whole,
People
times,
reason@@
justify
pertin@@
sugar
gagner
confi@@
silence
ess.
feront
puiss@@
fer
facts
use.
prospects
présentés
ys
guère
simil@@
manière,
riches
claims
nomin@@
qualité,
Députés,
adaptation
signal@@
taille
medi@@
Q@@
agence
plan,
1996,
fallait
smaller
certitude
faibles
réductions
circumstances,
sex@@
fondé
accompl@@
fié
postal
RE@@
ient
nature,
adopted,
prosperity
convaincue
réalité.
pers@@
membre.
souvent,
administrations
repris
retrait
Ne@@
order.
tre,
quar@@
project.
télévision
targeted
resulted
reading.
complicated
démontre
semaines,
materials
exemption
vague
sustainability
manner.
l'Irlande
je@@
processing
nomination
Wi@@
pilier
qu'aux
concessions
secre@@
veu@@
étrang@@
Bel@@
domaines,
aliste
why,
transatlantic
susceptible
control.
region@@
fixés
fassent
histoire
tenté
intervention,
Commissaire.
undermine
engagée
simplifier
rions
judg@@
uns
règlement@@
import
can,
Ombudsman
S.
Free
manifestement
stands
réfléch@@
tools
vingt
l’égalité
tor
organe
wine
question:
profit@@
state@@
cam@@
terait
cha@@
Pi@@
alimentaire,
two-@@
bound
400
issu@@
retain
9.
rs
arrêter
aborde
financed
culture.
ary.
speeches
underline
aware,
appelé
encouragement
démocrati@@
énergétique.
ism.
tackling
l'harmonisation
pencher
negotiated
strictes
chair@@
Zimbabwe
favoris@@
prospect
recettes
considérations
coopération.
iter
exprimées
heure
répond
lecture.
rencontre
dépos@@
broader
sû@@
d'augmenter
himself
Arab
leçons
doubts
procès
tie
fewer
mobile
Parmi
hit
vice-président
voisinage
educational
pr@@
humain
cities
doub@@
salaires
ship.
divis@@
Communauté.
tics
period.
qualité.
humaines
ign@@
regulate
relate
combined
dead@@
repeatedly
below
Therefore
conc@@
Islamic
adresse
cuts
atis@@
sought
internation@@
afraid
Or
purposes
dynamic
exceptional
privée
carte
aériennes
croissance,
sorry
became
consacrer
Turkey.
d'introduire
l’économie
tente
ill
syn@@
opportunité
choses,
l’industrie
28@@
considerably
P.
with@@
accomplir
chaleureusement
immigration.
existantes
ft
size
contrairement
clarté
d'association
sight
recommande
recommand@@
soul@@
plan.
Procedure
eth@@
dg@@
propos,
lire
peti@@
Partnership
Committee,
stop@@
integration.
ates,
derni@@
opportun
adopted.
achieved.
jouent
pir@@
décision.
pauvreté,
exports
dez
pauvreté.
objectifs.
uri@@
l’adhésion
DG
quelconque
nature.
my@@
red@@
TVA
oi@@
espé@@
affirmé
technologique
différente
problèmes,
exerc@@
ra,
D'autre
pla@@
turning
recev@@
excuse
id
separ@@
gauche
tée.
entrée
l’O@@
expe@@
inspection
more.
s'avère
Over
particulier.
française
sake
coordonner
ratified
liberal
aboutir
devienne
publics,
standing
bat@@
transfrontali@@
il.
lacunes
aires@@
sis
stimuler
itation
Jo@@
bri@@
or.
pur@@
Rom@@
preserve
achievement
Croatia
argent
subject,
retire
commun.
Afin
législati@@
s'applique
for.
ists
contrac@@
messages
timetable
advantages
l'exclusion
efforts,
contracts
civils
caractéristiques
demande,
coopération,
effectu@@
l'opposition
To@@
rée.
poverty,
teurs,
dant
Ireland,
topic
l’occasion
covers
ent-ils
én@@
locaux
tol@@
friend@@
siège
investissement
break
fron@@
government,
présentées
ré
causing
catégories
controver@@
person@@
te:
garantit
l'octroi
196@@
ach
Présid@@
respective
perspective,
)0@@
pacifique
énergétique,
pleasure
crit@@
considérant
espagno@@
dispute
le-@@
friends
vant
ateurs.
Mi@@
dura@@
onné
gouvernement@@
comment@@
là.
II@@
finally,
connected
n'importe
Tel
écr@@
5/@@
rappelé
renforcée
posed
BSE
suspen@@
camps
partageons
Lan@@
quatrième
actifs
er-@@
résid@@
amend
ses.
unnecessary
raw
promise
donnent
(article
motifs
37@@
El@@
rejeté
cid@@
transparency,
account.
massi@@
difficile.
civilian
confirmé
commit
complet
ors.
aéri@@
vision,
restricted
warmly
existant
difficulté
reasons.
deserve
We@@
document,
milliard
jeudi
objectif.
surprised
commerce,
rely
œuvre.
compromis.
ó@@
écrites
cherche
ux
obtained
illes
demandeurs
comprom@@
receiving
montants
habit@@
unanimously
rus@@
hau@@
recherche.
Parliament'
stage,
hom@@
l’environnement
standards,
install@@
projects.
exclusive
élus
offering
success@@
encouraged
general,
bureaucratic
sûreté
identification
couvrir
ethical
meaning
some@@
constamment
opportunités
lead@@
digital
grow@@
s"
l'instar
embargo
nationals
o-@@
présidente
préten@@
bru@@
alistes
label
isant
another.
boost
text,
régions,
B,
PIB
rapidly
crime,
admit
périodes
d'États
soulign@@
ency
like,
severe
l’année
other@@
vérité
disposal
thing.
indicate
tele@@
clari@@
conna@@
taken.
approbation
progres@@
Ap@@
matin,
appris
Tra@@
0.
peur
EA@@
financière,
financière.
regardless
modalités
listened
expansion
identity
Parti
es-@@
outstanding
influ@@
negotiate
adv@@
texts
remarqu@@
impliquant
transmettre
environmentally
commercialisation
cô@@
présent.
euse.
Stockholm
communication.
stimul@@
ecological
décisi@@
MM.
openness
lent
concer@@
immense
respected
d'Amsterdam
declare
Tim@@
coordinate
l'UE@@
expl@@
professionnels
ism,
internes
critère
respect@@
allant
solutions.
feuille
l'ONU
a?
entamer
rétablir
polici@@
quanti@@
fresh
incit@@
forc@@
d'accorder
né.
poverty.
principle.
libération
accompanied
provo@@
aspects,
wealth
sociaux,
Pap@@
ends
sharing
technologies,
Yes,
clas@@
incidence
threats
éré@@
logical
ad,
0 @@
jointly
feed
dy
Ru@@
emphasised
date,
effective.
diversi@@
obligatoi@@
èrement
kinds
1%
sembl@@
suit
croissante
Aussi,
physical
one@@
trav@@
partager
.'
invitation
tt@@
them@@
profonde
costs.
l’heure
évolu@@
assassin@@
strength
combin@@
She
D'@@
publié
consumers,
demonstrates
2001.
présidence,
railway
l’objectif
Time
diminu@@
retraite
2011
are.
rati@@
charte
lessons
campagnes
ré,
noti@@
Patten
l'affaire
adéqu@@
plain@@
-t-elle
constitutionnel
acceptable.
reconnaissant
cin@@
déten@@
San@@
fondament@@
absur@@
aux@@
devenue
Union'
count
Me@@
ure
ines,
autonom@@
immédi@@
stratégiques
none
ö@@
génétiquement
recommend
regar@@
examined
financières.
permette
ful,
represent@@
extraordinary
d'ordre
conten@@
aliment@@
fonctions
spo@@
tchèque
reinforce
comparable
civil@@
Ta@@
estim@@
besoin.
demographic
incidents
indications
bomb@@
universit@@
forêts
institutionnelle
établissant
doter
page
treat
ats.
aspirations
fabri@@
Compte
éliminer
s'agisse
sending
amb@@
contribuables
P,
ese
bank
absten@@
bes
larger
completed
representation
d'évaluation
Toute
gol@@
100@@
abandon@@
shares
soulever
l'échange
appro@@
if,
compl@@
engaged
pénale
wording
ons-@@
."
mouvements
advertising
Quelles
intergovernmental
civilis@@
toutefois,
withdraw
Soviet
3%
til@@
raises
med
accélérer
Protocol
ham@@
intervene
aus@@
tives
noon.
regard.
dirai
inacceptable.
hand@@
4/@@
arise
illég@@
group.
deser@@
incapable
façon,
beef
support@@
préjudice
restrictive
restructuration
solidarity.
corre@@
cité
wage
objections
complément@@
states.
convic@@
Aussi
û@@
informal
prisoners
widespread
arising
experi@@
bloc@@
politiquement
plays
Mac@@
son,
privés
Strasbourg.
atique
pratique.
d'im@@
jet@@
opposite
care@@
engend@@
constructi@@
Investment
parliament
accompag@@
voilà
maintes
l'OTAN
appliquées
islam@@
ive
ates.
Si@@
tragedy
devaient
coordin@@
approximately
congratulating
ters,
preparations
spécifiquement
expos@@
B.
interprétation
hab@@
savings
rapprocher
unanimous
short,
secrétaire
every@@
fourni
worrying
UE-@@
aw@@
minimales
méditerrané@@
side,
prosecu@@
servent
utilise
engagé
alisé
organisations.
européenne@@
enhanced
over-@@
(A5-00@@
195@@
decisions.
tir
d'amendements
princip@@
membre,
ential
C4-0@@
1/200@@
users
Presidents
tentatives
ambi@@
ently,
l'av@@
deci@@
Africa,
Européens,
da
l'est
respecting
restriction
Nonetheless,
So@@
eye
sécur@@
l'attitude
destination
renforce
explanation
prends
undertake
incentives
Palestine
impos@@
deep
ved
contrôl@@
laissé
l’adoption
island
talked
rendent
alongside
matière,
tribunal
tique.
d'égalité
unilatér@@
Their
utilisent
d'aborder
besoin,
Italy,
direct@@
d'élaborer
75
neuf
weight
ah@@
l’Europe,
Like
ack@@
gradually
1998.
régionaux
scand@@
Afghanistan,
50%
négociations,
fondamentaux,
t:
-201@@
prend@@
clai@@
evident
terms.
cause,
ALDE
lor@@
homosexu@@
terroris@@
limité
Every
adul@@
s'ag@@
inspections
Syri@@
mettons
mid@@
clairs
certific@@
bénéfice
football
substanti@@
entier
nationale.
shape
ely
bien.
citoyenneté
où,
serais
publics.
Any
l’utilisation
disabled
pro-@@
deviennent
chimiques
Est-ce
revised
institutionnel
contraign@@
Austria
batt@@
États,
xi@@
unité
existants
stance
eff@@
appelons
transport@@
iter@@
l'exemple
enquêtes
audi@@
moved
expense
ans@@
enn@@
dispu@@
mag@@
sauvegarde
alliance
tique,
tribute
fire
cé@@
ms,
reas@@
on:
agrees
skills
positives
orientale
reading,
puisqu'il
directed
zed
annex@@
fermeture
voi@@
spécialement
Plan
dies
Serbia
las@@
concepts
there@@
s'agissant
ser,
ol
atifs
ker
conne@@
ities,
Copenhague
widely
augmenté
predic@@
len@@
l'instrument
Thus,
PA@@
l’Union.
Strasbourg,
Oui,
extr@@
journalis@@
EP@@
remplac@@
conscient
nou@@
further.
mere
ellement,
push
manifes@@
base,
1995,
trans-European
pêch@@
det@@
gent
deuxièmement,
maintained
doutes
ager
evening
appor@@
planification
intéres@@
Single
bel
inquiét@@
conseils
Labour
airement
moteur
couvre
period,
priority.
déc@@
ay
forest
species
attentivement
Africa.
instau@@
consequence
consolider
multi-@@
defining
associer
juge
sovereign
indépendance
Most
bureaucratie
progressivement
prie
considé@@
agriculture.
d'euros.
collaborer
arrest
Amérique
colleagues,
au,
smo@@
Cro@@
a.m.
clean
nécessairement
founded
précon@@
seules
covering
norm@@
health@@
adapter
souffrent
insis@@
indicateurs
intégré
erron@@
advice
quel@@
utilisant
essenti@@
ingly
ming
défini
S'agissant
state.
préven@@
suspended
alimentaire.
1 @@
Etats
unfortunate
values.
représenter
nô@@
af@@
criteria.
régions.
Telle
Président.
phrase
l'enseignement
proposons
flotte
perd@@
Roms
fores@@
elections,
l’UE,
funded
investig@@
légitime
Grèce,
defending
secteur,
l'élargissement.
players
ma,
stipul@@
clarity
framework.
quotidi@@
concrets
basically
l'excellent
développé@@
Cohesion
tically
medicines
rai@@
discussion,
serai
l'Agenda
simplify
importantly,
déployés
effectuer
pourcentage
obser@@
inadequate
vel@@
tat@@
soir,
gratitude
itaire
appliquée
ateur,
settlement
structurelles
.-
dor@@
lic@@
schemes
real@@
diver@@
bénéficiaires
condamner
0,@@
ward
peace.
Traité.
boo@@
examiné
zi@@
aspects.
siècle
power.
cal
transformer
informé
rapprochement
écologique
vivant
nobody
traver@@
gg@@
investi@@
reality,
northern
ture.
imposées
inspe@@
economically
américaine
drafted
run@@
our,
fait@@
either.
38@@
elle@@
conclude,
identité
reçoivent
sincerely
10,
familiar
present.
able@@
constitutionn@@
initiale
d'amendement
naturel@@
circul@@
century
transparence.
Plusieurs
secon@@
monétaire,
au.
foundations
responsibility,
ately
Iran.
collecte
quality,
éventuelle
chemical
dossier.
mette
manufacturers
affich@@
hier,
ps
exclusively
concern.
pursuant
Liby@@
framework,
protocol
Tampere
Ho@@
Galileo
]
36@@
er's
indépendants
ignorer
soi@@
demand@@
difficile,
Your
mén@@
risquent
-B4-0@@
Lisbon,
frequently
amendment,
belief
reux
patent
récents
raisons,
power,
formule
/97)
banking
emission
souhaité
saf@@
Sol@@
ka
candidat
irs
agenda,
conciliation,
satisfais@@
judiciaires
enlarged
modèles
signing
Mes
consult@@
dite
Del@@
suivante
équilibrée
ED@@
exploitations
stor@@
declar@@
sale
N
igno@@
buy
quées
constatons
weak
amener
sauf
SP@@
drogues
hommage
s'ins@@
Helsinki
dollars
librement
soutiennent
l'honorable
dissi@@
occident@@
appui
sid@@
fro@@
merci
russe
opposés
prévus
technologies.
looks
bienven@@
d'accroître
appliqué
figurent
socialis@@
spécul@@
credible
Pays-Bas
l'époque
prefer
accru@@
restrict
reservations
Well,
Treaties
repeated
ça
recherches
low-@@
encore.
révél@@
compromis,
vie@@
cts,
rit@@
repres@@
Information
vigueur.
effect.
ferons
(B@@
facilities
Representative
eyes
l'industrie,
warning
strictly
savoir,
declarations
requiert
ms.
forward,
retards
2020,
Quel
er:
urgence
expertise
inclus
matters,
GDP
dions
prob@@
Méditerranée
regis@@
finale
registre
d'écus
resse
iront
atro@@
dégager
a;
implemented.
relev@@
tout.
innovation.
35@@
excluded
demandant
entraîné
élu
reç@@
entes,
its.
author@@
relèvent
phenomenon
physi@@
contraintes
nord
(debate)
afric@@
tolérance
horri@@
ses,
récentes
SIS
lancement
complaints
partie,
dizaines
competences
répression
healthcare
soumises
grand@@
Finnish
subjects
use@@
particular.
toler@@
l'approbation
l’application
explained
imposing
impliquer
ye@@
imparti@@
Spain,
Est@@
n'avait
bénéficie
fond,
cinquième
fiscales
avais
d'après
souci@@
sense,
vienne
basé
pétitions
fourniture
universel@@
dat@@
établi@@
far,
holds
compromise.
ale@@
legitimacy
ins.
interpré@@
borders,
Regarding
underlying
palestini@@
role.
tern@@
acy,
150
Chine.
succès.
retrouver
m'ont
borne
int
ities.
y’s
(débat)
was,
fourth
privatisation
belong
produisent
confirme
bes@@
écoles
abandon
rement,
financiers.
fr@@
emerging
sez
envoyé
/98)
percentage
dre
présentant
budgets,
Mus@@
began
clarifi@@
aggrav@@
offrent
convaincus
act.
remédier
bureau
manifestations
volontaire
ennes,
procedures.
coopér@@
concep@@
hautement
Hon@@
Balkans,
appropriées
indépendamment
reform.
croissant
rom@@
category
insisté
Culture
projects,
mentioned.
tens
themselves,
quit@@
solid@@
ased
accompli@@
électronique
commun,
diplom@@
illégale
nucléaire.
permit
bed
justifie
éten@@
cted.
ports.
ets.
libres
Iran,
réguli@@
particuli@@
l’ordre
solidarity,
dégâts
néglig@@
L'amendement
lais@@
ti
ique
éventuellement
afford
Serbie
mistake
counter
mène
Greece,
21@@
vues
coalition
deadline
élimin@@
Bruxelles,
troupes
ater@@
ethni@@
complic@@
l'Ukraine
Balkans.
arrêt
contributing
promesses
euse,
government.
certainty
ture,
hav@@
para@@
break@@
fermer
réglementaire
procedural
Alors,
renouvel@@
coll@@
satellite
clair@@
es"
ich@@
objective.
durabilité
rejection
établit
sil@@
passant
défini@@
j’espère
gie
Bush
user
training,
removed
event,
gouvernement,
ning.
weak@@
cs
Ms
Irak
ME@@
where,
régionale,
alist
équilibré
aug@@
dependence
PI@@
involved,
longtemps.
ô@@
renforcé
armé@@
absor@@
condemned
application.
transports,
ouvre
inqui@@
inutile
coastal
progress,
undertakings
Afric@@
ores
checks
bran@@
side.
marks
devions
exigence
beings
hence
design@@
beneficial
sév@@
rais
non,
Office
preliminary
firms
est-elle
honest
reported
divided
détru@@
plaintes
incident
mondial,
allemande
extent,
illustr@@
joining
générations
di
prolong@@
rejoindre
worldwide
ery
ana
appels
fas@@
fran@@
exacerb@@
pesticides
mak@@
state,
Written
auteurs
background
allemand
sé
époque
réun@@
pénal
sions.
financières,
surrounding
undertak@@
reb@@
déjà,
côtés
mets
lement,
ancien
ched
vision.
subsequent
présid@@
justi@@
managing
impliqués
devez
medium
tail@@
systématiquement
log@@
l'éducation,
interests,
atti@@
verser
date.
losing
door
preventive
abouti@@
temporaire
tion?
ad.
échou@@
Bi@@
rencontré
l’homme,
estimated
ner.
suppli@@
mentation
candidates
And@@
pre-@@
Croati@@
bienvenue
fournit
/98
prix.
guarante@@
internationales.
money,
Ukraine,
financi@@
communautaires,
déplac@@
parvenu
objectif,
tion:
week.
Kur@@
importantes.
congratulations
quelqu'un
outermost
usually
ard,
house
Bur@@
souhaitable
Democratic
promis
réaliste
ace
résistance
Defence
sectors.
inscrit
representing
U
closure
!@@
Liberal
Criminal
exact
Ceux
20,
The@@
apparent
assisté
priorities.
sauv@@
ais.
Britain
ré.
tari@@
highlights
simples
l’intérêt
îles
l'inclusion
point:
manag@@
BCE
négatif
vers@@
Chin@@
field,
micro-@@
adéquat
suffisante
conformité
effective,
frontières.
terri@@
ff
Services
divergences
governments,
48
table,
Chi@@
rent@@
As@@
nutri@@
Hamas
genetically
France.
issi@@
directeur
l'instauration
pièces
was@@
législation.
interim
s'engager
racisme
Afghanistan.
supérieur
croiss@@
values,
propositions.
showed
possibil@@
Wor@@
service.
eas@@
cooper@@
Two
Euro-Mediterranean
respectant
zz@@
weigh@@
limitée
collection
Instead,
Allow
explication
Communist
SI@@
procu@@
Community,
simpli@@
fully,
supéri@@
strike
Bal@@
ic.
j'avais
desirable
douani@@
ément
Poli@@
concrètement
vehicle
d'initiative
suggère
l'autre,
ferait
isme.
extraordinaire
costs,
sais@@
cted,
abstained
consistant
urgency
médic@@
plai@@
sen,
acteur
acqu@@
opposé
respects
ishing
night
10%
admi@@
ports,
flu@@
document.
available.
aussi.
primordial
liability
conclus
lorsqu'ils
considérés
relations,
issement
prevented
research.
préci@@
gy
Iraqi
longues
attention,
compléter
événement
Allemagne
combler
1997.
replaced
personnel,
tors
cé
mai@@
embry@@
agricole,
l'agriculture,
safeguarding
financiers,
culturel@@
trend
down.
nam@@
norme
e -
march@@
partners.
éch@@
systematic
);
facil@@
high-@@
popular
control,
régulation
traité,
positi@@
cesser
fondement
Deux
wards
matern@@
artifici@@
l'acquis
everybody
deleg@@
l’emploi
Outre
integrate
sectori@@
l'approvisionnement
aéroports
buil@@
amendment.
Control
débattu
traité.
waters
erais
Iraq,
réels
vir@@
ending
citizen@@
Vice-@@
exprimée
Atlantic
occasions,
notably
hun@@
keen
affronter
approfondie
attaquer
struggle
structurel@@
contin@@
ality,
dramatic
3)
précéd@@
contamination
Directive,
responsabilité.
estimé
informés
surprise
objectifs,
écouté
failing
youth
promises
pressing
project,
aujourd’hui.
Tunisi@@
speak@@
first,
answer.
rurales
gratu@@
í@@
travaille
jeunes,
répète
1/@@
But,
nes
things.
quote
Certaines
Nordic
Moyen-Orient
intensifier
frontali@@
equivalent
positive,
rog@@
minister
Solidarity
fol@@
logis@@
voterons
continuation
indépendante
matéri@@
multipli@@
Bon@@
gouvern@@
votes.
âgées
Hong
ouv@@
freely
prév@@
Brok
rejette
appu@@
zation
juger
joined
emment
absolue
hésit@@
Women's
inégalités
IN@@
picture
participent
containing
use,
ECB
ges@@
rising
bus
l'op@@
del@@
Citizens'
l’in@@
société,
China.
Palestini@@
dom@@
Pen@@
Asia
tourisme,
paraly@@
battle
Traité,
cutting
rare
surveiller
reu@@
priorit@@
foo@@
cus@@
Internet.
Pendant
sensibles
harmonised
observateurs
Belarus.
tragédie
entrepris
short-term
écoul@@
stu@@
ènes
restera
compte.
effor@@
refused
Du
te-@@
diminuer
résultats.
IC@@
nécessaires,
tations
sain@@
redu@@
d’État
dents
unity
proches
animaux.
Geneva
félicitations
J'appelle
DE@@
remercie,
supervisory
mesures,
retar@@
ri
ved,
transparency.
democrati@@
fortun@@
réuni@@
iner
thi@@
L
deaths
ast
Tant
ners
considèrent
compete
expert
contamin@@
US@@
Sar@@
atoire
pouvons-nous
comprennent
remarquable
actives
correctly
d'autres,
rav@@
vité
sections
Socialists
reports.
initiatives.
reform,
Georgia
d'imposer
ns
anniversaire
unemployment,
van@@
censure
tée,
proper@@
explique
ath@@
Community's
Wh@@
Objective
ping
d'immigration
interest,
ks.
ality.
delays
convince
nomm@@
es -
voudrais,
n’avons
naturel
9/@@
eau
chômage,
occurred
objet
ements
l’homme.
intervention.
prin@@
dernière.
sy@@
civile,
instruments,
chiff@@
permanente
ratify
’,
resumed
séri@@
slightly
rapidement.
considerations
acceptance
Verheugen
TA
atives,
-je
.)
ters.
difficul@@
reports,
noise
président,
you@@
rigi@@
élé@@
Year
fe
block
décision,
indispensables
passe@@
ois
incorporate
aéro@@
ing-@@
group@@
d'au@@
détour@@
UE@@
l’idée
ets,
nine
financ@@
pursued
however.
order,
criminels
presentation
utiles
structurels,
souhaiter
11,
Bruxelles.
Directive.
blement
political,
défaut
tigh@@
vies
contenues
reste,
tomb@@
d'aller
airlines
constat@@
fronti@@
1994
communic@@
ili@@
nouvel@@
gam@@
ment;
Pu@@
flo@@
récent
Bro@@
multination@@
parole.
empêche
concernés.
set@@
Affairs.
education.
Iraq.
consider@@
Allemagne,
arg@@
jeune
accoun@@
fin.
légale
courts
timely
nonetheless
albeit
olu@@
sûre
licences
attack@@
objective,
solid
abandonner
clearer
l'élargissement,
Finland
macro@@
accusations
pel@@
ars
D'une
solidarité,
l’esprit
3/200@@
légitim@@
alcohol
alising
mesures.
tak@@
d's
immédiate
ko@@
manifeste
han@@
occupe
chargée
croyons
Rou@@
ruption
pacifi@@
correcte
accepting
atte@@
Bosnia
modifiant
coloni@@
means,
actuellement,
Je@@
élu@@
siè@@
l'énergie.
journalistes
pure
G20
GUE/NGL
istes,
re;
w,
tly
d’autre
fleet
l'issue
long-@@
mettra
sectors,
espagnole
trom@@
DA@@
repe@@
que:
cours,
undertaking
groupe.
doit,
Industry,
short@@
m'
Please
rythme
accumul@@
faisant,
presid@@
proportionn@@
isons
préservation
assor@@
concre@@
énormément
l'Amérique
d'évaluer
thousand
follow-up
1)
sta@@
men.
participating
donnera
Rights.
essayé
infe@@
enrich@@
pragmati@@
time@@
0)
émis
démar@@
l’accès
racism
humaine.
assurances
Espagne
agricole.
disappointed
CE,
sinon
Parce
assi@@
rement.
contes@@
drogue
grav@@
emplois.
éco@@
lives.
confident
d'intervention
frap@@
nouve@@
l'élimination
infringement
entrepreneurs
80%
ennes.
sement,
importants,
needs.
(I@@
soci@@
Fund,
trait@@
civile.
Val@@
Colombi@@
exposé
Géorgie
d'entendre
Sa@@
corruption,
Could
refusé
l’énergie
prouve
PO@@
shortcomings
concludes
contenter
ey@@
interinstitutionnel
advis@@
oui,
faith
réformer
imported
commerce.
ness,
altern@@
pointing
règne
advocate
interdit
result.
programmation
play@@
entreprendre
ajoute
speech,
actuellement.
resolving
coherence
ambigu@@
judge
viend@@
ics
employés
sauver
(Rule
major@@
vulnérables
emprun@@
isé
cir@@
piè@@
succ@@
ak
dire.
community.
hundred
désir
telecommunications
aircraft
opération
dates
investiss@@
force@@
Afrique,
texte.
partners,
aspir@@
qu’on
penalties
jun@@
alisée
chute
élevées
personnel.
D'un
controlled
profite
éduc@@
signer
substitu@@
diversification
periods
2/200@@
custom@@
Cour@@
mission,
Non
d'accepter
businesses,
déplore
ia.
audiovisu@@
totalité
Sal@@
art
Parliament@@
préc@@
tered
nuit
qu'est
imaginer
expri@@
cruciale
Solana
prospe@@
même.
l’intégration
initiatives,
manifest@@
produits.
légi@@
interdire
touris@@
wing
venir,
interrog@@
aller@@
G
third-country
Bosni@@
recti@@
fur@@
l'extension
renoncer
man.
matériel
voie.
handicap@@
T,
fallu
l'autre.
t?
assurément
Verts/ALE
fast
croissance.
plani@@
rapporteure
carri@@
Col@@
depend@@
PC@@
Rien
cultiv@@
decre@@
expensive
implication
intellectu@@
reconna@@
iques
tribunaux
measu@@
certification
compétiti@@
mesu@@
discriminations
practi@@
ile
condamnation
prochaine.
invol@@
surpris@@
l'Allemagne
d'actions
inside
occur@@
bench@@
needed,
camp
Australi@@
marked
assistance.
intérieure
business.
ws
maintenance
ès,
Ashton,
impres@@
assemblée
dépendent
gained
posées
ète
issus
visited
worl@@
ned
participer@@
rural,
come.
handling
vingt-@@
Parallèlement,
droite
formation,
lieux
été,
ché
ls,
sen
advanced
evaluate
need,
prim@@
losses
ache@@
plafond
win
tering
fra@@
schools
étro@@
olog@@
prochaine,
motor
nez
Pologne,
salaire
dered
ring
volet
prix,
Objet:
Somali@@
tement.
lait
12,
activities,
éli@@
positif.
aide.
texte,
used.
(CE)
recherch@@
non-governmental
register
chemins
sad
impetus
Ukraine.
rechercher
organic
économi@@
p,
fall@@
base.
extrême
L'accord
drive
ned.
notes
disagree
ainsi,
qu'aucun
fails
conflict.
avance
hoc
Millennium
criteria,
sexuelle
students
défense,
supporter
actuel,
séjour
water@@
serves
acheter
effectively.
no-@@
répond@@
regulations.
accessi@@
Santer
issions
enterprises,
Ju@@
solidarité.
guise
Italie
l'assistance
levels.
Pe@@
decent
good,
Budget
Other
soutenue
allo@@
indicators
Milosevic
view@@
procurement
noter
sements
week@@
propositions,
tées.
envoy@@
ruling
requirements.
alisation,
react
Qu'@@
er?
ensuite,
heritage
inde@@
instruments.
antly
aise
aries
mann
subsequently
alone.
douze
emo@@
Grande-Bretagne
fournisseurs
conciliation.
placer
D'autres
contract
land.
older
follows
d'expression
controversial
targ@@
démontrer
fiscal@@
00
liked
Personne
revenue
bé@@
l’une
management.
législatifs
Korea
dangereuses
free@@
sl@@
32
draf@@
correct@@
craintes
suffisant
qu’au
considération.
appointment
 millions
l'aspect
Similarly,
teen
terminer
Présidente
utilisateurs
longtemps,
school@@
assur@@
ampleur
Celle-ci
cadres
promoted
Do@@
m'en
proclam@@
(COM(@@
Mil@@
adoptant
procedures,
changé
explicitement
except
financement.
entam@@
bord
virtually
Américains
course.
experiencing
comparison
neighbours
orale
Above
regularly
joindre
listes
contrôle.
concilier
affirm@@
brevets
pursuing
concrétiser
signs
saurait
Timor
parallel
internationales,
violences
sociaux.
ki@@
bilatéraux
prévisi@@
Thursday
exclure
recru@@
ateur.
hui
days,
pact
eventually
anie
helps
atu@@
Internet,
barrières
entering
enf@@
attentats
avant.
terres
reserve
mus@@
insufficient
grandement
ard@@
2,@@
bless@@
traduire
ones.
million,
États.
it-elle
consist@@
raison.
frontières,
2%
l'effet
l'ampleur
arbitr@@
agres@@
incorpor@@
figu@@
Vo@@
process@@
focusing
touchés
level@@
Euro
3/@@
capac@@
l'euro,
service,
lu
fortes
alités
III
threatened
multiples
jugement
cach@@
permitted
annonc@@
road@@
pilot
authorisation
travaillons
étudier
uncertainty
sett@@
breach
+@@
ferai
partisans
polon@@
énormes
Votre
n'aurait
oui
stations
lines.
divi@@
mée
civilisation
disons
ai,
search
feder@@
monétaire.
follow@@
voyage
radio
atoires
horizontal
diri@@
sive,
isation,
hoped
journée
impéri@@
publicit@@
Schulz
étrangers
provoqué
faisait
intense
ced
fou@@
blame
retur@@
(EC)
-up
recognises
anniversary
societies
s'attaquer
électorale
variety
explications
Commun@@
mer,
freight
progressi@@
cents
lieu.
l’en@@
compéten@@
cer
intelligent
ing:
nov@@
géographi@@
née.
ton,
Frontex
examining
sole
pill@@
sci@@
fixe
Beaucoup
withdrawal
enterprises.
rubrique
visit@@
ki
Ter@@
stages
di.
rê@@
frustr@@
sérieuse
Tribunal
before,
extrê@@
entier.
ush@@
killed
oblige
étudiants
intérieures,
evalu@@
individus
foun@@
Nord,
4-0@@
understand@@
directs
technology.
power@@
GN@@
sociales.
da,
faut,
sérieux.
somm@@
ick@@
débu@@
capital.
infractions
see,
l'au@@
banque
expressément
différent
Who
items
Procedure.
slow
navi@@
urs
pati@@
saluons
39@@
unilateral
juridiquement
gradual
ancy
track
technology,
encourageant
tation.
réclam@@
audit
Luxembourg,
San
inuti@@
Within
neutr@@
incentive
troops
L’ordre
leaves
integration,
exam@@
spéciale
contenant
débat@@
second@@
und@@
stade,
(F@@
enables
attached
changes.
advant@@
/97@@
exigent
alone,
invited
morning,
indemn@@
new,
consistency
harm
vigil@@
histori@@
salariés
subje@@
os,
map
Fischler
ie,
qualifiée
Ainsi
erre@@
class
speaking,
allusion
cohésion,
franch@@
war,
eco@@
though@@
veto
territoriale
race
ing?
teri@@
tension
Declaration
3.@@
Ireland.
claimed
threshold
prouver
remark@@
souff@@
refugee
c’est-à-dire
manipul@@
décl@@
stability,
eusement
regarder
after@@
fit
l'Italie
augmente
remo@@
Government.
sincere
immigrés
structurels.
sco@@
de-@@
dépasse
e)
Communauté,
directe@@
rein@@
adhérer
vacc@@
...@@
l’élargissement
ctions,
devoted
Danube
l'É@@
d'armes
catch
Lors@@
NA@@
Lisbon.
donnant
extraordin@@
définis
loin.
consomm@@
résulte
perspective.
droits,
gouvernementales
(2)
objection
t's
fiscalité
américains
d'exprimer
définitive
paradox@@
ama@@
centralis@@
stringent
socio-economic
AL@@
ero@@
continuerons
mandatory
D'après
sw@@
l'entreprise
times.
modifié
environnemental
onie
sit
point@@
grow
Poland,
jusqu'au
tation
East.
funding.
soun@@
ital
Instead
female
ong@@
cohesion.
pourtant,
répres@@
processus,
quality.
ues.
admissi@@
compromise,
morts
administration,
scrutin@@
viendra
commend
infrastructure,
conjointement
Authority
chron@@
Hol@@
aves
quickly.
prices.
extern@@
courag@@
Y
defic@@
tiques.
développés
faces
host
eures
trial
insur@@
addi@@
incl@@
142)
neighbourhood
precautionary
emissions.
arly
1996.
chem@@
gross
has@@
ctions.
éloig@@
Procedure,
impli@@
employers
it?
invité
saving
Chers
l'espoir
workers'
ground.
chamb@@
statistical
40%
st,
atif.
urs,
examination
Service
soulig@@
d'équi@@
stabilité,
suc@@
thé@@
reconnaiss@@
doll@@
n'étaient
listening
su
pul@@
V
constructif
suédoise
tre.
slow@@
exploiter
communiquer
strictement
différenci@@
similaires
illu@@
unification
Party,
responsabilités.
cteur
isme,
franç@@
données.
res?
système.
communaut@@
comités
bâtiments
reporting
indiqu@@
atiques
army
fifteen
2011.
ose
l'analyse
printemps
reductions
persist@@
respected.
sions,
Irlande,
technologi@@
etc.,
témoign@@
ch.
dete@@
5)
bateaux
evid@@
Tran@@
nier
ly-@@
vigueur,
marqu@@
int@@
adress@@
irlandaise
qu'après
législation,
sales
Aucun
partant,
Clearly,
teurs.
fifth
israéli@@
essence
amend@@
curr@@
expliqué
better.
lau@@
chino@@
RD@@
exécution
another,
assist@@
context.
lui,
préoccupe
apprendre
financier,
Sud,
EI@@
tées,
bureaucracy
précédente
ises.
geant
l'exportation
traditionn@@
ligh@@
Ver@@
Great
Reform
nie
Belarus,
examinons
rédaction
chapter
cibl@@
nationale,
gradu@@
députés.
consulted
istes.
aille
helpful
l'OMC.
fore@@
migr@@
line.
atic
Madrid
d'empêcher
Americans
honnê@@
Whilst
begun
d'accords
alism,
Minis@@
carbone
accounting
died
désastre@@
marche
disposés
unemployment.
quantités
Serbi@@
dre@@
nº
d'entreprises
commission@@
gh
résul@@
flow
latine
low@@
classification
fel@@
II,
précises
Eurostat
lifelong
Leur
favorablement
documents.
détention
semaine,
face.
meets
vocational
particuliers
gé
mê@@
Finlande
educ@@
blood
pretext
tem@@
Palestiniens
internet
droits.
Brussels.
stipule
supervis@@
effect,
distor@@
fixed
destroy
war.
heads
vitesse
ful.
bord@@
coexistence
-B@@
stockage
system@@
approuv@@
ia,
At@@
600
tac@@
identifier
show@@
sports
corresponding
privilégi@@
régul@@
sanctions.
signalé
rul@@
Déclarations
réglementer
l’article
œuvre,
protest
34@@
arrivé
post
(1)
textiles
ines.
clair,
amendement,
l'effort
Would
cope
regulations,
argue
prô@@
enregistr@@
ond@@
ator@@
chômage.
laying
generate
disposé
rigou@@
données,
d'échange
culturelles
ished.
restructur@@
60@@
enabled
institution.
spee@@
l’encontre
ens@@
Belgium
estiment
ational
Chairman
learned
subsid@@
employed
soulève
renewed
préserv@@
chauff@@
refus@@
Bulgari@@
tribun@@
rien.
élan
necessity
oeuv@@
banan@@
role,
envisaged
risk.
victim
vali@@
mission.
on?
team
financier.
réjouissons
l'agenda
extérieur,
moments
mobiliser
tas@@
l’intention
venez
fossé
réag@@
procédé
avenir.
doute,
définies
maintenant.
English
produits,
mit@@
servi@@
Suède,
officielle
confrontée
obtenus
exprimés
dimensions
d'euros,
performan@@
reloc@@
systématique
démocratisation
cer,
d'impact
Vu
l’attention
tard.
ly@@
exclusi@@
farmers,
ished
endor@@
d'enfants
endorsed
licence
appointed
required.
réponse,
subsidiarité.
strength@@
agi
d'ores
ined
pose,
enquê@@
équipements
wan@@
nant
dure
procédure,
Japan
s @@
ie.
conséqu@@
étais
candidats.
cannot,
chocol@@
Sakharov
harmonise
ice,
in-@@
tude
d'éducation
constitué
contrôle,
tic,
nucléaire,
reront
sive.
ener@@
sus
patient
soin
humains.
guerre,
judgment
R,
damaging
interinstitutionn@@
presents
gouvernement.
intég@@
œu@@
candidat@@
loans
traduit
30%
card
solved
alar@@
sub-@@
assembl@@
apportée
an-@@
train@@
intégrante
employeurs
établies
reflection
unemployed
évaluations
sun@@
Decision
touchent
l'internet
May@@
Palestinians
compétentes
érer
handicapées
grec@@
ie@@
un,
cases.
voudrait
him.
touch
black
this?
by-@@
victime
program@@
espagnol
medicinal
connaiss@@
écar@@
Bank,
ure,
disparités
FE@@
senti@@
atta@@
34
Face
renon@@
reques@@
suscite
denied
OM@@
notice
gie,
lon@@
98@@
nav@@
capital,
Jacques
%@@
partenariats
généraux
Tibet
preparatory
affec@@
wherever
barri@@
97@@
circumstances.
Liberals
Four@@
coop@@
créant
avan@@
changes,
rons,
born
ître
awa@@
administration.
sli@@
gravité
presidential
démocratiques.
buildings
community,
heur@@
spring
risqu@@
sûrs
mand@@
a’s
ellement.
absolu@@
Naturellement,
good.
sité
15,
exist.
mur@@
fondamentalement
substantially
such,
categories
vote:
PE
naturellement,
ries
vice-@@
2013.
come,
Congo
fixation
conç@@
enshrined
moderne
préférable
résolu
2000@@
serv@@
motor@@
investigations
liqui@@
clar@@
communiste
inspi@@
séance,
investisseurs
deny
western
indig@@
continue.
vrent
perception
Iranian
probable
weal@@
Ser@@
sentence
integrity
volont@@
ane
avant@@
cohésion.
labor@@
fragile
être,
faux
ues,
recei@@
EMU
civiles
sure,
es’
pair
l-@@
management,
l'ancienne
ological
drop
l’efficacité
récol@@
sympathy
lorsqu'elle
mix@@
l'alimentation
problem@@
tait
sanctions,
e's
enough,
Hungary
déficits
se:
concret
forment
chois@@
humains,
Globalisation
mort.
l'euro.
tures
fears
remis
documents,
poin@@
miss@@
alisées
unanimity
Blair
interes@@
mille
entamé
étu@@
guide
échec
hour
laiss@@
eux@@
perfe@@
voici
concerne,
Portugal.
scandal@@
minor
offices
majeurs
obligations.
d'exercer
flag@@
ended
Union@@
impératif
Ham@@
belge
Pl@@
proven
marqué
ian
answered
aines
earlier,
businesses.
falling
vain@@
inven@@
ent:
explicitly
arrangement
avis.
regime.
T.
gravement
voulez
échelle
beg@@
financements
programming
OGM
préfé@@
Forum
exploit
happen.
apport@@
ack
financement,
che,
remain@@
Sud-@@
l’Assemblée
progress@@
explanations
indirect
far-reaching
toda@@
residence
Committee.
250
profondeur
ises,
jeter
jusqu'ici
This,
matur@@
ratifié
true,
observed
octroy@@
join@@
zon@@
consolidate
viabilité
pending
sums
Communautés
paragraphs
trus@@
plénière.
authorised
Et,
missing
ologique
important@@
practic@@
passé@@
liaison
l'étiquetage
connection,
innovations
elderly
technique,
campaigns
décrit
macro-@@
s'.
sour@@
placing
évolutions
Deuxième
Special
digne
d'organiser
E,
ised.
drivers
l’ont
L'un
régl@@
excell@@
water,
registration
concitoyens.
Europe?
instrument,
d'ajustement
13,
d'instaurer
ressor@@
inclut
fructu@@
journalists
commentaire
tim@@
État@@
it-@@
culturels
critiqu@@
lig@@
decisions,
témoigne
cast
I.
appel@@
libéral
dop@@
Liber@@
clu@@
judicieux
multiannual
harmon@@
test@@
vocation
sible
Thessaloni@@
d’améliorer
Sil@@
seriously.
évidence,
Moldova
feu
valid
discus@@
summer
adverse
fought
privatis@@
non.
ör@@
relancer
detriment
conservateurs
ned,
étapes
ami
futu@@
n’en
implementation.
minimal
year's
significatif
55
l’ai
complex@@
yesterday,
exchanges
impôts
hazardous
medic@@
sorte,
stake
haz@@
expres@@
cross-@@
compagnie
decl@@
aide,
sinc@@
Cotonou
disponible
amendement.
moti@@
ces@@
bureaucr@@
sus@@
Everyone
J'invite
Ky@@
when,
normal@@
assessing
Fun@@
ster@@
négatives
turc
Council@@
rs,
ministère
struck
comprehen@@
disait
concurrenti@@
trag@@
croy@@
immun@@
tiques,
alleman@@
ultéri@@
rencontrer
consideration.
summar@@
alisés
investigate
Kong
incompatible
East,
sm@@
eli@@
institution,
suscité
pourrais
prouvé
rigueur
shift
serre
pilo@@
e"
efficaces.
ambiti@@
thre@@
dele@@
j'étais
aged
Fund.
excellence
améliore@@
Parlement@@
consac@@
res:
Barcelone
competitiveness.
survi@@
37
characteristics
nations,
canc@@
prudence
prou@@
completion
fam@@
assis@@
mentionne
persécu@@
éventuelles
désire
dispara@@
pouvaient
cera
informations,
ness.
adequately
OLAF
agricul@@
initially
volon@@
fois.
affaire.
guer
sugg@@
passeng@@
donné@@
Also,
pourra@@
foremost
déç@@
agu@@
clair.
Sri
materi@@
présentera
coordon@@
4-@@
septembre,
ced,
Development,
d’ici
Romanian
Federal
continent,
uniforme
concertation
foundation
prioritaires
accused
ministre,
l’Union,
lam@@
arriver@@
enter@@
aste
complexité
apparently
découlant
défen@@
irrespective
essential.
Sy@@
industriels
ouvri@@
travaill@@
1992
own-initiative
2/@@
Jus@@
Members.
remise
wish@@
chrétiens
mistak@@
cause.
Pays-Bas,
constituera
acy.
fasc@@
abol@@
né,
rale
choices
sensiblement
prison@@
invent@@
č@@
acknowledged
définit
outlined
occuper
angla@@
innocent
décisif
fabricants
fundamentally
corriger
décou@@
atri@@
formulé
data,
climatiques
'the
sujet@@
apportées
l'investissement
lun@@
vas@@
ont-ils
package.
similaire
Tr@@
corruption.
recommended
subi
respecté
transfrontalière
Nous,
Martin
net@@
experiences
consequences.
professions
constante
emerged
rigorous
atif,
palestinien
parlementaires,
montr@@
p.
budgets.
ling,
lines,
countries'
inscrire
cts.
characterised
camp@@
revi@@
d'assistance
ent-@@
agissant
emerg@@
partiellement
servic@@
coordination,
Kinnock
imposition
Hongrie
Air@@
consis@@
devons,
victoire
onto
feu@@
reuse
tough
signes
annuelle
bloo@@
sphere
Aujourd’hui,
presidency,
jeux
bb@@
prisons
remerci@@
déte@@
liquid@@
country@@
Laeken
privées
résolument
governments.
airports
concerns.
zone.
intérieu@@
hur@@
humanitaires
convi@@
iller
If,
stating
pharmaceutical
Americ@@
présentes
trad@@
née,
vin
rembour@@
l'équi@@
fact@@
wise
soutiend@@
moy@@
Celui-ci
potentially
rétic@@
ta,
desquels
reforms.
removal
émer@@
L’Europe
resistance
entendons
démantèlement
meille@@
Hussein
dly,
rating
fish@@
rendus
d'importance
ize
protectionn@@
tus
l'Espagne
sessions
poursuit
lance
sanit@@
bien@@
traitées
billion.
linguistic
elling
is-@@
Act
York
decades
recogni@@
qualit@@
vrai,
contraire.
Erasmus
pho@@
originally
cadre,
Coll@@
commissaire.
écouter
vrai@@
bilatér@@
suggests
essentiel.
roads
invest@@
certi@@
crire
woman
minuti@@
pée
d'emplois.
REACH
backing
dits
Russi@@
consistently
siz@@
treaties
driven
tements
far.
soi-disant
emphas@@
achievements
accurate
reconciliation
dd@@
Japon
soi,
appliquent
tow@@
disastrous
pensée
sucre
chev@@
chil@@
falsi@@
victimes.
codes
adéquates
stick
ailleurs.
supplémentaires.
l'âge
birth
5/200@@
rate,
serions
Gi@@
stability.
ventes
atric@@
glo@@
ission
mont@@
floo@@
terrorists
sam@@
bit@@
dow@@
yourself
complied
psych@@
tation,
ating,
igh@@
necess@@
vivons
vraie
Can@@
paragraphes
she@@
guerre.
élargissement.
deviendra
arch@@
omb@@
Roumanie,
reprises,
large-scale
publiques,
inevitably
Europe'
countri@@
adapted
cer.
spécifiques.
supplies
verse
lacking
belie@@
Paris
attitudes
l'ancien
marking
éle@@
dictator@@
nations.
subsidiarité,
souhaiter@@
practically
révolution
(200@@
expul@@
stimulate
citizenship
excé@@
persecu@@
ard.
défavoris@@
l’environnement,
pit@@
consciente
s'inscrit
concernées.
économ@@
neighbour@@
discre@@
Conseil@@
impu@@
ains,
yes,
légitimes
prononcé
Irak.
Monti
contribution.
9/200@@
cohesion,
approu@@
pousser
Left
ceiling
coordonnée
go.
ageing
établissements
assistance,
rés.
tely
functions
ders,
determin@@
forests
l'opportunité
ill-@@
caractéris@@
roun@@
détaillée
condamné
shortly
disproportion@@
prévoyant
act,
essentiel,
irlanda@@
transferred
euses.
RA@@
réf@@
intelligence
participe
désaccord
ik@@
deciding
atrice
urgent@@
remar@@
committe@@
conclusions.
inciter
négatifs
approuvée
defe@@
ves@@
particulières
assessments
d'inclure
stricter
d'E@@
venant
alists
partagent
ECHO
indépendant
livrer
brevet
richesse
Obviously,
aling
inter-@@
rédiger
remained
data.
annuels
accroissement
nic@@
disappe@@
l'expression
telling
céré@@
d'experts
ways.
onnement
vue.
stricte
apportera
O,
annon@@
ging
télécommunications
soli@@
intéresse
33
vols
iste,
échéant,
Kurdish
Nice,
occur
réunir
atifs.
donner@@
N'@@
executive
solu@@
délégations
l'heure,
cter
Actuellement,
développé
poissons
campaign@@
Ac@@
incid@@
vit
traitements
thro@@
cies
2000-@@
Black
care,
ultimate
tariff
tâ@@
vely,
ming.
length
blanc@@
abuses
honneur
friend
simple,
coordinating
clean@@
month@@
exercice,
Armen@@
2012
ratifier
banc@@
assum@@
Nord.
a:
endeavour
pages
Women
responsibilities.
compétitive
solving
italienne
trouver@@
Washington
néerlanda@@
mari@@
devo@@
disposée
réclame
cellules
straight
(DA)
rendue
compétente
govern@@
sent@@
séparation
opérationn@@
autrichi@@
italien
nous-mêmes
numéri@@
movements
là-@@
less@@
much.
e!
dérogation
add@@
développe@@
d'op@@
lour@@
sely
émanant
masse
Barón
president
marchés,
protes@@
octroi
travaillant
lement@@
politic@@
péril
disadvantaged
unions
dépen@@
géographique
sait,
toire
Fi@@
indu@@
poisson
doubt,
obstru@@
Danemark
statute
l'extérieur
d'Amérique
65
USD
impossible.
fiscaux
reproductive
soldats
polonais
tier
spir@@
syndicats
publiques.
1990
spac@@
ches,
possèdent
figh@@
fav@@
our.
tain@@
secur@@
principles.
lets
aidera
préférence
M,
resource
plea@@
prosp@@
rever@@
décembre,
biodiversity
exposed
tardi@@
His
démarches
tendances
conviendrait
auparavant
gets
PME,
Sud.
tableau
l'appel
Moyen-Orient.
Quatrièmement,
fé@@
obtaining
in-depth
organiz@@
stratégi@@
contributes
l'Est
accro@@
rs.
d'ailleurs,
sérieuses
affecte
aider@@
essay@@
reuses
directive-cadre
Traités
ravie
internationaux.
ching
Fer@@
Turkey's
ght
profession
stock@@
virus
America,
connu@@
package,
nullement
quitter
dramati@@
exister
suédois
disputes
importantes,
congé
fallen
vaccination
limitations
indiquent
jours.
Pas@@
wil@@
timet@@
sector@@
PPE-DE.
suédo@@
entrepren@@
attach
later,
aise.
décisionn@@
X
lap@@
devise
esse
honorables
observers
nés.
d'émission
child@@
d'où
IM@@
ency.
l'espère,
autoriser
attire
chemicals
britannique,
combine
path@@
hémicycle
accueill@@
peace@@
appuie
efficacité.
prévisions
inquiétu@@
équival@@
feature
alism.
isation.
audiovisual
avoiding
squ@@
allait
badly
arrived
Mugabe
relation@@
euro-@@
compenser
farm
incendies
rése@@
rares
taken,
warm
budg@@
exhausti@@
Solana,
d'inter@@
Israël,
false
competitiveness,
rép@@
accueillir
Denmark
finish
dûment
compare
dictature
forgotten
alo@@
spectacul@@
définiti@@
refu@@
ération
apportent
Brussels,
36
élargir
systematically
Jusqu'à
définitivement
directes
fru@@
ave
reminded
principles,
46@@
appreciation
response.
Albania
s'exprimer
Annex
reform@@
formulée
everyday
établis
parlementaire,
approaches
mine
Should
d'offrir
fisher@@
l'U@@
persuade
demonstr@@
of.
l'image
Institu@@
stream@@
dégag@@
complémentaire
motif
transferts
whe@@
names
danois
black@@
emploi,
Conformément
parallèlement
features
delivered
rational
Fourthly,
references
accéder
occupied
spor@@
opér@@
d'intervenir
Gra@@
Itali@@
draftsman
armée
Verts
prices,
posi@@
surface
facilitating
G8
tion;
passing
were,
high-quality
réactions
Ros@@
din@@
perio@@
vieux
suivie
d'actu@@
Statute
esse.
officiellement
Uni@@
mondialisation,
hopefully
safeguards
piliers
Ger@@
Aucune
modé@@
parviendrons
terroriste
socially
p.m.)
consent
tourner
répondent
domesti@@
libérer
essi@@
structurelle
parlementaire.
décide
PN@@
d'efficacité
multinationales
corporate
arres@@
Sta@@
Mu@@
sees
XXIe
injustifi@@
défense.
langu@@
coûte@@
organisme
Amsterdam,
directives.
line,
images
fusion
storage
isée
CE.
quali@@
pourparlers
poses
travelling
cheap
Is@@
ède
Kingdom,
results,
éducation
d'entreprise
4/200@@
touchées
Belgique
renouvelables.
ised,
description
sigh@@
subir
d'intégrer
toi@@
savons,
dog@@
précédents
thy
iraki@@
fémin@@
manifestation
américaines
Bri@@
Turk@@
eds
exag@@
Otherwise,
bénéficié
maritimes
juin,
dispositif
formally
directives,
préparé
bande
close.
roots
d'enquête
Netherlands,
Govern@@
facto
Asian
pierre
assurant
chacune
open@@
directi@@
offic@@
priorités.
Asie
Baroness
alloués
initiated
brutal
proliferation
may,
ON@@
vieillissement
MEP@@
l’article @@
banned
conformer
discussions.
IGC
tle
ideological
siècle.
frau@@
puissances
logi@@
contenus
ex-@@
globalement
ains.
mar
tentent
sensibilisation
conform@@
dual
dénoncer
majority.
bureaux
transparente
alities
disparition
e @@
autorisés
sell
classe
itaires
promesse
jeunes.
activity.
l’avis
ure.
7/@@
ture@@
régissant
révélé
peu@@
humaine,
ky
general.
sold
ming,
handed
qu'aucune
foster
emploi.
location
closing
sul@@
transnational
mistakes
Islam@@
équit@@
/97
have.
présidence.
l’amendement
sang
comprend@@
freedom.
attractive
effici@@
subjected
95
d'ouvrir
d'animaux
valoir
refusal
déf@@
cherchent
intervenants
tif
MEDA
ple
istance
sex
confirmation
accru
design
ding.
annoncer
équipe
ñ@@
consacrée
demi-@@
haus@@
Wol@@
London
adhésion.
ations?
about,
rés,
rol@@
biomas@@
réconciliation
crops
care.
arriv@@
circonst@@
cy
say.
Agreement.
2013
ft@@
l'OMC,
ways,
hongro@@
particulièrement,
fate
before.
Greens/European
obligés
uranium
clear@@
disponibilité
l’agriculture
Through
Cap@@
seg@@
shor@@
Ecofin
corpor@@
d'eau
déposer
l'information,
assuré
rapid@@
models
habil@@
scol@@
Natura
uncertain@@
contrat
résultant
m'est
linguis@@
profitable
regulating
Italie,
ris
soir.
forestry
transports.
blind
Presid@@
21st
hope@@
sectoral
port,
model.
Questions
d'efforts
last,
rig@@
reforms,
organizations
reac@@
apparaître
Sa
fourni@@
44
farmers.
prévoient
high@@
d’intérêt
commiss@@
Second
demande.
j'aurais
ski
iste.
lorsqu’il
Michel
ologi@@
ressources.
passi@@
vill@@
Ste@@
ked.
Sub@@
al:
défenseurs
history.
safeguar@@
Gros@@
universités
courte
mented
alcool@@
instrument.
avons,
route.
ukraini@@
candidats,
sud-@@
Small
rémunération
integral
réalisées
oppres@@
avancé
dépasser
favour.
wished
impe@@
mées
federal
Asi@@
alized
Mun@@
Apart
ice.
réussir
ationn@@
puis,
hô@@
large,
heavily
ders
yet,
bab@@
réelles
compris@@
bre
navig@@
Olympic
tening
mean@@
detention
terai
democratically
Macedonia
diplomati@@
reposer
effectués
satisfaits
Pas
la,
inondations
élo@@
pauvres.
arab@@
Dem@@
alle@@
Romania,
euro-méditerrané@@
favorise
broadly
recogn@@
approfon@@
difficilement
ade@@
fonds.
wholeheartedly
nat@@
Baltique
radioactive
Code
civiles,
/98@@
diplô@@
animaux,
pollution.
ti,
éché@@
Rob@@
model,
h.
projet.
d'am@@
l'exception
Summit,
codi@@
tries
crè@@
commises
stat@@
sanitaires
consists
investing
journ@@
(SL)
décès
ouring
ensured
imperative
réjouir
reconnais
ators,
middle
complexes
scheduled
grec
laquelle,
l'arrêt
Communit@@
object
mind.
Non,
l’initiative
C'était
exclude
Slovakia
thir@@
prefer@@
espère,
appell@@
orial
unprecedented
pires
bombar@@
soutenant
apparemment
38
l'Inde
Scot@@
appli@@
welcome.
voulait
entrav@@
ave@@
automatically
endeav@@
prioritaire
responding
zo@@
impliquées
bilité.
tive,
kind.
asse@@
hood
rè@@
delicate
Schengen,
espoirs
soutien,
décisive
43
comparaison
humili@@
emplois,
Royaume-Uni.
adding
exempl@@
obligatoires
increas@@
hospit@@
poursu@@
propriét@@
Member,
allu@@
paqu@@
removing
consacrés
livres
14,
ensures
century.
criterion
attache
Schengen.
atement
tendant
chimi@@
détenus
faç@@
prêter
associés
ical,
ones,
go,
environment@@
Gre@@
announ@@
suite.
avéré
bilité
reserv@@
700
decline
fabrication
component
catégori@@
approuver@@
sele@@
repercussions
2010@@
efficiency,
marchés.
néerlandais
considérées
précision
degre@@
C6-0@@
competi@@
occidentaux
l'Irak
governed
And,
épuis@@
ensu@@
reprodu@@
Slovaquie
règ@@
reten@@
concentre
péti@@
accompagner
prochain.
vez
région@@
voir,
placé
bâti@@
onal
own.
ideal
December,
recognising
orienter
Hence
renforçant
consensus.
mét@@
diffus@@
conseill@@
unlike
powers,
foremost,
tackled
Naturally,
actors
russes
architecture
step@@
threatening
achieved,
addresses
notification
propos.
exerce
attempting
faits.
nouveau,
suivants:
personnelles
virtu@@
it:
développer@@
humanit@@
paro@@
surpris
8/200@@
approfondir
follows:
conclusion.
No,
septième
clear:
territories
survie
continuons
unit
chann@@
800
suffisantes
réchauffement
sociaux-démocrates
souffre
complè@@
demanded
l'unité
l'échelon
directive@@
euses,
connais
priorities,
cur
rapp@@
ches.
enlarg@@
soil
Macédoine
won
vil@@
maximale
usual
mai,
pétroli@@
discipl@@
loge@@
sense.
Against
Euratom
photo@@
fonde
dera
pement
German@@
/96@@
électroniques
even@@
dé.
reporter
session.
souha@@
doive
phy@@
Pakistan,
wn
discussions,
ames
José
mépris
précédemment
foi
proportion@@
1993
afternoon
expliqu@@
available,
asion
morale
sé.
attein@@
contradictoi@@
toujours,
ze@@
tolerance
consulter
s".
sport,
protocol@@
used,
era,
house@@
offres
challenges.
recently,
east
l’absence
aériens
annul@@
history,
proposant
shoc@@
cub@@
mutil@@
reser@@
adi@@
avant,
antici@@
criticised
police,
arrivés
essayons
2007-2013
September,
enjeux
exemptions
dur
biodiversité
qual@@
souligné,
évoluer
contre-@@
siècle,
ders.
own,
ing;
inférieur
demander@@
align@@
peut,
planète
-00@@
collapse
personnelle
creative
specul@@
rang
responsabilité,
fly
réc@@
souver@@
Erika
couverture
iso@@
déterminée
controvers@@
securing
universel
techniques,
effecti@@
th-@@
assured
conformes
gle@@
housing
vérifi@@
accentu@@
Mat@@
funding,
providers
résist@@
Nations,
Austria,
thinks
irani@@
(BG)
co
Minu@@
That,
affron@@
25,
classes
Ti@@
2011,
l'I@@
considér@@
sto@@
majority,
crainte
Bolkestein
investment.
atifs,
stag@@
amoun@@
mun@@
brut@@
coul@@
ations:
abil@@
anné@@
nul
che.
l'époque,
ier
contre.
45@@
itu@@
influencer
ress
causés
ago@@
rempli@@
portugaise
félicitons
sport.
recyclage
valable
vous.
transatlanti@@
provoquer
technologiques
investment,
whenever
dominant
harmoniser
l'enf@@
euros,
simple.
naissance
describe
désol@@
subs@@
opéra@@
sachant
subsidi@@
limiting
rejoins
compromises
countr@@
genetic
rapidement,
jusqu'en
e'
d'aides
John
normally
enfant
admission
nour@@
relief
Morocco
autorisé
perfect
stresses
need.
lif@@
satisfy
timi@@
impatience
d'élargissement
Quite
sacri@@
fort@@
l'essentiel
gend@@
décisions.
compétitivité,
collègues.
écrite
distorsions
Group@@
presidency.
consommateur.
approuvons
swe@@
actuel.
dégra@@
uv@@
dommage
Maroc
CF@@
60%
Each
entraînera
bility
tiqu@@
prochainement
côtes
annonce
Sweden,
res;
divisions
irrégularités
atteind@@
réform@@
semestre
Jean-@@
structu@@
dées
tionnel
application,
d'utilisation
enthusias@@
peut-être,
omm@@
worried
l'Autorité
flows
Irlande.
délic@@
enforce@@
elle-même.
agricoles,
days.
s'appliquer
inhabitants
nés,
efficiency.
airport
duly
thirdly,
routier
Strategy.
proprement
7/200@@
nee@@
invit@@
éventail
l'armée
ourselves.
 – @@
forme@@
Author@@
murder
ethnique
sentiments
K
audit@@
business,
figurer
Institute
stem
curi@@
Si,
combination
networks,
profound
mondiaux
déploy@@
account,
hydro@@
multilingu@@
fièvre
allég@@
jusqu'@@
PME.
angle
frappé
monopoly
down,
mondialisation.
Frattini
resolution@@
parvenons
assister
espèce
decisi@@
happen@@
Neighbourhood
asser@@
March,
provisi@@
south
cris@@
released
grants
cohérent
plénière,
l'échec
théori@@
abolish
BEI
appalling
d'Europe.
calendri@@
médias,
surplus
prerequisite
Ari@@
illustre
ously.
n'aient
MA@@
efficiently
openly
root
potentiels
spon@@
Wel@@
wit@@
Until
l’immigration
We,
paragraph@@
superflu@@
Europeans,
autorisation
téléph@@
volontiers
emplo@@
unanime
ently.
II.
AR@@
farms
d'envisager
style
sovié@@
prepa@@
kil@@
emphasize
].
t;
morning.
strive
d'assurance
match
tool@@
and.
promotes
perturb@@
agree,
local,
absurd
délégu@@
renew@@
rément
6-00@@
acceler@@
circonstances,
élargie
lays
politici@@
simplified
testing
concern,
l'urgence
mars,
progrès.
book
emphasises
décision-cadre
priority,
lowest
cités
currency.
acquisition
l'instant
chain
responsi@@
integrating
révolu@@
served
l'intégrité
mauvaises
éventu@@
returned
means.
Aux
soulev@@
feels
coûte
d'intérêts
biologi@@
))
rerait
définitif
aiming
évit@@
suite,
ining
requiring
unanimité
fat@@
analyser
fixées
sixième
OSCE
tomber
guilty
licenci@@
dise
fill
confirms
soutiendra
Lomé
Ra@@
twice
title
établie
rural.
ène.
jugé
union.
physique
deni@@
certes,
step,
Conference.
situations.
dossier,
correspon@@
l'orientation
prostitution
ka,
producer
dairy
réalisée
er @@
numb@@
l’avenir.
regimes
ei@@
business@@
voters
sport@@
pronon@@
se?
contraints
faille
D,
aire:
stead@@
soulevées
n’ai
indicates
Agence
ces,
rable
charbon
agree@@
1994,
exce@@
abo@@
techn@@
UK@@
gouvernements,
fond@@
bois
affairs.
démographique
Burma
reflètent
que?
français,
cles
resolution)
versement
d'autres.
réflexions
conversion
lesson
tened
water.
subsidiarity.
Cuba,
Thanks
d'étendre
job.
tier@@
bloc
ating.
Fif@@
désig@@
élections,
proactive
pani@@
multinational
amène
Education
prestations
interlocu@@
pés
whatsoever
jurisdiction
négocié
cycl@@
trente
scrutiny
être.
fragil@@
employer
registered
Neither
demonstration
consoli@@
witnessed
incomb@@
gas@@
parvenue
America.
recorded
AIDS
valent
now@@
réservé
CEE
lock
occasion@@
domain@@
consequently
d'Amsterdam,
phénomènes
chinois
conflit.
préconise
récemment,
l'appui
PSE.
professi@@
installation
tolér@@
complémentaires
passée
Dan@@
opposer
Secretary-General
responsable.
propor@@
quick
diversit@@
D.
coordination.
alimentaires.
42
l'agriculture.
claire.
Fédération
deterior@@
agricoles.
earmarked
tremendous
favor@@
confiance.
dig@@
rid
vaccin@@
concurr@@
c'@@
signatures
autorise
obs@@
situe
sentir
atteintes
jeu.
appreci@@
19,
environnement,
mentionnés
Ku@@
infrastructures,
d'instruments
PHARE
children's
substantielle
diox@@
else,
ethniques
imposé
couverts
fashi@@
atom@@
2012.
juridiques,
generous
wrong.
Eh
revê@@
Ah@@
definitive
accountability
assets
inquiry
d'énormes
l'auto@@
contraignant
experts,
exert
Ay@@
autonomy
Conciliation
ulation
ressources,
Bor@@
interpreted
body,
Mercosur
l’amélioration
remplacement
chercheurs
bler
éta@@
dio@@
Autrement
néglige@@
changed.
pauvres,
majorité,
immunity
l'annexe
jeun@@
summit,
occupent
hoo@@
remarkable
système,
ina
author.
décr@@
EIB
d’abord,
opportunity.
Ashton
venue
dead
destroyed
influenc@@
revolu@@
conjointe
l'Iran
auté
attribuer
extérieur
professionnelles
notation
découver@@
dérogations
d'Europe,
Tit@@
elsewhere
Lam@@
sph@@
enjoyed
accueille
simpl@@
sémin@@
President@@
institutionnelles
focuses
shop@@
non-discrimination
Trade,
error
-based
agré@@
sés
adjustment
Er@@
offrant
juris@@
réfugiés.
traitée
différentes.
Democrat
spécifiques,
beau
possé@@
responses
souvenir
précieux
Jord@@
criticise
précisément,
absurde
’@@
backed
ease
,5
149)
consolid@@
generated
éra@@
supranation@@
confis@@
speaker)
ls.
brut
cing
David
determining
logic
démocratiques,
30,
Premi@@
drew
step.
istic
coïn@@
préparatifs
élections.
aspect,
faut-il
bilité,
moratoire
l'ap@@
animale
incapables
aveug@@
efficac@@
networks.
game
constitution,
seekers
expressly
arité
discriminatory
illeg@@
décennies
enforce
texti@@
scientists
mid-term
d'aujourd'hui,
Tourism
égal
fondements
empi@@
indiquant
mafi@@
approches
précau@@
ownership
sanction
banana
solutions,
conjunction
expéri@@
correct.
universities
coal
August
1999@@
arrivée
enhancing
Swoboda
transfrontaliers
lobby@@
écologiques
possible@@
olive
bovine
vérification
Petitions
d’adhésion
value.
symbol@@
décisionnel
suscit@@
thoroughly
accessibles
conditionn@@
Bow@@
évoque
Bas@@
Pr@@
topical
révèle
peser
rés@@
part-session
èle
brève
7%
rough@@
infraction
else.
retrouve
territory.
existait
concrè@@
fid@@
rétablissement
ces.
sustained
l'être
démographi@@
transporteurs
expériment@@
pare@@
diverse
Espagne,
Fri@@
encourages
crucial.
infli@@
végét@@
neg@@
bodies,
25%
rance
tradi@@
120
ôt
moind@@
précis,
implemented,
believed
arme@@
dedicated
cost-@@
Gr@@
shipping
particulière.
main-d'@@
stabil@@
éprou@@
organization
monitored
Tri@@
investors
précé@@
teneur
conducteurs
Organ@@
optim@@
affectés
Bö@@
Commissioners,
inc@@
concert
moves
origin.
li,
union,
danger.
publier
rapports,
vend@@
reserves
ayez
twenty-@@
availability
tionnaire
like@@
lists
delegations
soupç@@
Council’s
protection@@
opportunity,
afgh@@
elimination
chargés
l'orateur)
Greens
reconnaissons
utile.
Copenhague.
spécifi@@
expenditure.
6/200@@
l'offre
+
ALDE.
âge
fournies
-related
ressource
fiable
passent
16,
libé@@
Conference,
émettre
(COM(200@@
préoccupés
urgente
desired
transl@@
dr@@
manner,
interference
demanderai
atténuer
22@@
Egypt
GM@@
régional,
June,
parviennent
impun@@
permanence
sant
Adjustment
synergies
lanc@@
individuels
début,
McCar@@
extremis@@
shar@@
transmis
isses
5 @@
déterminant
intellectuelle
infrastructure.
proce@@
entreprise.
appeared
entreprise,
d'exécution
dge
vely.
fondées
cess@@
Ministre,
civi@@
pack@@
meeting,
difficult.
ode
tragique
training.
qualitative
requête
d’adopter
6-0@@
him,
partnerships
totalit@@
général@@
eux-mêmes.
bénéfique
brefs
Cambodi@@
teur,
importation
vel
Naz@@
wages
ouvertement
EU'
parlent
dict@@
bans
Republic,
different.
sélection
champi@@
inquiète
organized
goods,
essaie
maybe
speech.
retirement
priorité.
itera
différents.
fonds,
l'intermédiaire
d’ailleurs
véri@@
apprentissage
evol@@
levels,
Agreement,
découle
appréciation
mercredi
mini@@
years'
répan@@
abu@@
/96)
eting
pel
wonderful
lundi
aient,
mobilise
faits,
berg
waste.
conventional
railways
hongroise
nécessitent
concevoir
findings
cataly@@
libre-é@@
consensus,
après-midi
acceptons
Bank.
stabilité.
condamne
transfer@@
pace
summit.
l'abolition
threat@@
ourselves,
rapporteur@@
restaurer
d’Europe
P)
revêtent
currency,
promp@@
Médiateur
dement
runs
subven@@
soldiers
ley,
desquelles
Genève
mur
true.
forê@@
voc@@
long.
adressée
résoud@@
législ@@
vet@@
writing
task.
less.
ELDR
ettes
répète,
souhaits
believ@@
preser@@
satisfaisante
troubles
nation,
financés
fuels
aria
guer@@
guided
cofinancement
palestinienne
strikes
Iran@@
phas@@
fabric@@
System
phenomen@@
positif,
durables
fires
Tou@@
préférences
calcul
decision-mak@@
s'était
géo@@
sévères
transatlantique
Str@@
gues
monopole
controlling
inci@@
contradictions
Euro-@@
consentis
tis
ple:
alization
Sev@@
statement,
s’en
Personnellement,
dilem@@
46
[COM(@@
minist@@
await
overwhelming
wake
tabling
réalités
catastrophi@@
adressées
see@@
espè@@
améliore
globalisation.
purpose.
coins
initiate
active,
agriculteurs,
couvert
bol@@
minutes.
repression
eable
pouvoir,
Israël.
indis@@
ken,
fiables
amélioré
Où
énor@@
ening
réduite
well@@
events,
nation.
élaboration
peut-elle
compris,
Ceux-ci
VI@@
Summit.
Working
avant-@@
rapides
intensification
n'aura
arme
sson
appauv@@
a'
locale
livestock
l’approche
d'An@@
media,
2013,
Est
défendu
complain@@
verb@@
iez
'no'
l'In@@
ley
lear@@
eding
plas@@
secondary
ench@@
kill@@
règles.
succe@@
belles
matin.
alban@@
devote
class@@
abord
preferred
ation'
differ
l'autorisation
Articles
adressé
ologie
laissent
Chamber,
sources.
applied.
sous-jac@@
Chacun
ros
criticisms
farm@@
choisi@@
d’énergie
concerné@@
d'objectifs
cture
demi
q@@
clon@@
revit@@
ading
invitons
raisons.
insu@@
l'usage
poorer
categor@@
triste
vendre
tarifs
final.
taxpay@@
impact.
session,
étendue
fit@@
vér@@
fourn@@
étant,
voyag@@
mémoire
intoler@@
allez
Européens.
displaced
simplifying
/96
issait
subsidiarity,
Por@@
durement
Palacio
gés
banning
nel
isés
circonscription
disab@@
convictions
liberté.
d'approvisionnement
technique.
gue,
définitive,
faim
voulions
victory
intermédiaire
connue
mant
quement.
Côte
TACIS
of@@
caught
références
stud@@
victims.
Men@@
esse,
while,
grave.
48@@
balance.
organising
après-@@
mani@@
diplomatique
iterait
uphold
inadmissible
democratisation
food,
mic
l'ex-@@
l'Alliance
invested
dépens
recycling
State@@
consequ@@
urged
partie.
compliqu@@
Suu
establishes
écologi@@
Cuba.
pluriannuel
productions
acceptab@@
illus@@
long,
Union?
Balkan
Fon@@
réduisant
quantitative
exige@@
esprit,
conclusions,
ancienne
issements
Sahara
leas@@
body.
wishing
d'importantes
70%
hommes.
susciter
Peace
leçon
Gener@@
generations
l'influence
ène,
posts
suspe@@
December.
Vol@@
éro@@
R.
tort
Budgets,
powers.
Commission:
remboursement
tortu@@
gy@@
PES@@
impressionn@@
secrétariat
offensive
Ombuds@@
hommes,
ban,
Lithuania
expan@@
nordi@@
Poettering
urs.
inclusive
déloy@@
guar@@
alling
longu@@
errors
L'une
vac@@
établissement
anciennes
l’autre
ly:
Yugoslavia
peut-il
eless
say@@
clients
prétendre
doing,
papi@@
concluding
engine@@
fréquemment
informations.
affaibli@@
record@@
Muslim
noci@@
assistons
bancaire
sacrific@@
réd@@
ya
moratorium
l'étude
més
18,
exposés
productivité
rejo@@
rejecting
biological
esp@@
l'air
sac@@
projet,
olympi@@
rev@@
myself,
compatibles
final,
européenne?
détruire
prolonger
recognize
praise
tiend@@
règles,
d'attention
engage@@
d’en
possession
irregularities
l'aviation
causé
enem@@
créent
journe@@
l'exigence
seat
internationaux,
s),
ity@@
Tch@@
arrivent
résolus
Committe@@
prochain,
budget@@
d'ajouter
Pour@@
fies
facilité
humanitaire,
compétitivité.
Moyen-Orient,
easi@@
weeks,
xénophob@@
développe
stabiliser
4%
aérienne
requis
successi@@
schem@@
moder@@
environnement.
désespé@@
coup@@
mort,
l'ensemble,
audition
Fran@@
chômeurs
threaten
dimension.
érant
ennem@@
zero
reply.
défend
inappropriate
tunnel
teach@@
49
Council'
dollar
cos@@
activity,
Israel,
péri@@
eligible
confér@@
d'affaires
réfère
fulfilling
Climate
l'am@@
traduction
comments.
ars,
properly.
compu@@
élevé.
independ@@
représentante
applique
split
forces,
USA,
interrup@@
particul@@
fournissent
parole,
Policy.
fonctionnent
recycl@@
sortes
meur@@
billion,
asks
factor@@
ness@@
franc@@
fiée
quasiment
1992,
finlanda@@
met.
on;
invasion
avons-nous
don
announcement
mineurs
sag@@
l'honneur
plus@@
write
réexamen
me:
Braz@@
résultat.
17,
convey
jeunesse
infring@@
May,
Administr@@
answ@@
is;
Gal@@
pose.
opportunities.
transparent,
acknowledg@@
contiennent
inequalities
Barnier
plaide
96@@
précaution
garantissent
Christi@@
manufacturing
poss@@
S)
basées
communications.
happen,
ambitieuse
préféré
déroule
mother
shel@@
atives.
4-00@@
ique.
riez
quotas,
pollution,
monétaires
globalisation,
Egyp@@
Rad@@
accepts
octobre,
alimentation
argent.
supranational
of-@@
further,
favorisant
yon@@
facility
fantas@@
transférer
économiquement
EEC
origine
Tor@@
ci.
breaking
organisation,
prépare
inspir@@
contents
équitables
ministerial
religion,
tuna
missed
Resolution
toxicom@@
dimen@@
productiv@@
fonder
90%
frapp@@
outset
acceptable,
forces.
terrain.
approach@@
historiques
d'insister
colon@@
l'ES@@
beaucoup.
fragmentation
poiss@@
langage
duc@@
ique,
d'O@@
cad@@
conjon@@
self-employed
bears
philosophie
essential,
Slovak
Democrats,
November,
instant
acquérir
unified
wrong@@
Nigeria
ss
renouvelables,
départ,
britanni@@
assessed
crédible
abstr@@
ck.
abstenir
bataille
dépenser
d’information
Industrial
practices.
ely,
explanatory
guerres
People’s
dan@@
vérité,
pt
Anyone
l'actuelle
enregistré
normalisation
aud@@
intergouvernementale.
semble-t-il,
expect@@
flow@@
persuadé
realised
bodies.
(A4-00@@
OS@@
distingu@@
anxi@@
endo@@
establish@@
stic@@
réfugiés,
bov@@
permets
atteints
account@@
difficult,
montrant
Stat@@
dioxyde
tick@@
expression.
ground@@
exem@@
toxic
October,
criminals
obvi@@
Ass@@
perform
distributed
mentions
parfa@@
PNR
Stu@@
treatment.
exhaustive
accor@@
ori
better,
turn,
musi@@
efficacité,
fournis
semaines.
prétend
kur@@
posés
contrast
democrac@@
pessimis@@
pin@@
affecter
tions:
remercie.
origin,
clearly,
antéri@@
furthermore,
approvisionnement
competen@@
prec@@
transeuropéens
correction
comprenons
adaptée
décentralis@@
Secretary
effectivement,
Robert
continuité
valor@@
empha@@
aquaculture
vide
seemed
ler@@
constituerait
wed.
illégal
locales,
bres
being,
condemnation
constitution.
lui-même.
purposes.
saine
confidenti@@
refle@@
communi@@
habitude
faiblesse
jurisprudence
1995.
CIG
lourds
Nobel
partisan
Proche-Ori@@
rémun@@
passons
macroeconomic
englob@@
propriétaires
quarters
leader@@
pertinent
territoire.
ti.
entités
billets
town
l’accent
inadequ@@
progression
80@@
itées
Austri@@
combatt@@
aining
eliminating
Mari@@
tchèque,
lin
chur@@
conflict,
Guerre
topics
nourriture
nements
rassembler
d'aucune
clairement,
preserving
dégradation
Malta
does,
soft
extra@@
note,
ira@@
affected.
F,
Sin@@
lef@@
belonging
manifester
Medina
pertinentes
missi@@
diagno@@
à@@
prompt
Among
substance,
d'accord.
commenter
vécu
prestation
situations,
d'accueil
obligations,
bâ@@
donor
coher@@
visions
undermining
preservation
Latvi@@
agencies,
39
.30
Voici
ply
carburants
explicit
Europol,
privileged
remedy
-.
affairs,
depending
tic.
renouvellement
meantime,
homm@@
appropriate.
sha@@
vulnéra@@
Finlande,
victimes,
dioxide
indispensable.
suspendre
alisme,
societ@@
réduits
apprécié
mondial@@
Tunisia
Sierra
légal
flights
41
ke,
limité@@
numéro
grati@@
intermedi@@
héritage
autonomie
attiré
ide
set.
standardis@@
drinking
the-@@
interrompue
strong@@
ption
vendredi
incidences
accession.
province
ther
Democracy
pregn@@
cte
communes.
cigaret@@
voisins.
délits
peu,
souligner,
gel
automatiquement
jeunesse,
disaster.
communau@@
créée
words.
IT
continueront
tiré
rum@@
yer,
na
deliberately
l’ouverture
deficits
success,
ists,
ars.
voterai
ablement,
consid@@
prioriti@@
selection
éventuels
rele@@
Guin@@
octroyer
ambassad@@
form.
vigilance
reassure
avantag@@
Sim@@
critiquer
impliquent
continue,
hard@@
proviennent
appartenant
issuing
isolated
verte
continuous
think@@
touchant
SMEs,
Hel@@
d'approuver
entretenir
expli@@
minorities,
réclamer
hunger
complement
emissions,
onnée
s'avérer
deli@@
Chamber.
plainte
concili@@
modest
ices
gains
dit:
difficulties.
recipi@@
elsewhere.
4)
ître.
bas,
addres@@
Commissioner's
LAF
structur@@
riche
yed
princi@@
prevention,
UEN
divide
Indi@@
governance,
Concerning
expression,
viser
portes
Blo@@
effort,
analysis,
al;
nement.
slo@@
qu'ont
rédig@@
renvoy@@
Encore
1990,
ficti@@
ze,
parliaments,
exist,
n'avez
ples,
touché
famous
teur.
retour@@
dirige@@
expand
pratiques.
north
privacy
deprived
alled
specified
ton.
financé
débou@@
Communication
archi@@
70@@
l'instant,
redistribution
gne
Ukrainian
approving
under-@@
d'arriver
peripheral
non-respect
rendant
équitable.
adres@@
mo,
novembre,
Strategy,
ban.
Mexic@@
authenti@@
proposent
grou@@
goods.
dys@@
sme
ultrapériphéri@@
fact.
laun@@
stakeholders
elle-même,
bruit
dering
Canada,
ano
ements.
estimates
statement.
speak,
juge@@
sceptic@@
négative
characteris@@
k-@@
empty
marquer
anywhere
Relations
autrichienne
acquired
ation)
tables
commencent
Liberties,
publicly
Funds,
ître,
alarming
subissent
Pir@@
OLAF@@
rassembl@@
N,
survival
proposed,
V,
punish@@
suspendue
Observ@@
listed
signale
tionary
comptent
bref
since,
investis@@
disparities
backs
prece@@
ve:
demonstrating
zone,
Ren@@
Fern@@
ments:
terrorist@@
blanchiment
proves
bing
ever-@@
l'adaptation
pragmatic
knowledge-based
nucléaires.
Far@@
N'oublions
arian
hand.
effort.
d'accélérer
expresses
encein@@
humanitaire.
reforming
EF@@
adhé@@
Inde
animals.
l'économie,
vess@@
postpone
dir
Section
thetic
fictifs
substantive
hoping
Business
suggéré
larg@@
definite
ciel
détérioration
d'entamer
ép@@
détaillé@@
Chypre,
entrent
mi-@@
Méditerranée.
wide-ranging
quantity
systémati@@
référendums
favoured
affaire,
Mesdames,
detrimental
efficaces,
symbolic
Yougoslavie
majeures
sible.
arbit@@
party,
l’information
mitig@@
85
État,
seulement,
de:
ing'
unit@@
Jer@@
légalement
se-@@
mili@@
d)
Moldov@@
lourde
offertes
ignored
vod@@
improved.
dee@@
Sp@@
l’argent
content.
jur@@
abordés
counci@@
sauvegarder
mesurer
jouissent
déchets.
flight
l'innovation,
prostitu@@
électriques
Nice.
accepted.
A.
enver@@
Stal@@
recommend@@
impulsion
impati@@
générer
tunn@@
discré@@
combustibles
ely.
renvoi
l'implication
happ@@
militaire.
Costa
ther,
VA@@
troisièmement,
proximité
demi@@
95@@
détaillées
recital
Kyoto.
suivre.
three-@@
sensibil@@
resolved.
heureusement
déploiement
d'importants
defin@@
Vienna
ferroviaires
prescri@@
unitaire
accélé@@
bas.
trains
persistent
Cuban
constraints
by@@
finds
entrera
quoi,
face,
sé,
élevée
allocations
énergie.
transfers
figurant
elimin@@
l’opinion
Cal@@
méri@@
CD@@
enten@@
isie
convain@@
adopté,
productivity
Afghan
Eurojust
pench@@
fault
Copenhague,
da.
differenti@@
loin,
Qua@@
requises
initialement
grap@@
orateur
Schulz,
responded
giques
retrait@@
wave
Presidenc@@
survenus
profession@@
refusing
regime,
soigneusement
rat@@
proje@@
Verts/ALE.
régional.
légales
ger@@
déposée
distorsion
brev@@
déséquilibres
ements,
protégé@@
arises
House@@
Pack@@
hypo@@
yp@@
désignation
destru@@
réglementaires
pain
promet@@
réagi
1999)
identifying
monsieur
forts
famille,
Birmanie
d'accord,
Gender
shortage
œuvrer
lobby
responsable,
taxpayers
board.
requirements,
Arctic
reverse
histoire,
build@@
consultation,
coupables
Wyn@@
vons
content@@
motivation
l'apprentissage
battre
disposi@@
reinforced
remote
tics.
quantit@@
Mad@@
ophi@@
l'Ou@@
exergue
reimbur@@
dé,
ers’
exhor@@
evening,
examinée
communicate
démocraties
Aung
ever.
tting
located
War
transfé@@
ration
heures,
petition
catastroph@@
Fischler,
d'environ
activités.
film
agencies.
Sh@@
appropriée.
ingérence
minds
satisfactor@@
ession
sanitaire
numérique
advances
crises.
définie
Pakistan.
witness
facilitation
formations
June.
concentrated
adhésion,
dispositifs
Malte
seas@@
tive.
seize
Belgique,
wholly
projets,
selling
Lituanie
online
consult
Plan@@
pénales
Amnesty
twenty
occasion.
fier@@
aurais
véhicul@@
Verheugen,
pre-accession
lack@@
Southern
insistance
supérieure
postpon@@
ainsi.
Rap@@
perdu@@
subvention@@
juste,
dy@@
laissant
PPE,
Yugoslav
administratifs
endroit
souffrance
sanction@@
entour@@
combat@@
prohibi@@
lie@@
communes,
taxpayers'
handled
problémati@@
n’était
pursuit
passés
emerge
specifically,
avion
xenophob@@
l'information.
senior
profond
le:
approfondi
indigenous
reconcile
tourist
Serbian
mountain
publish
confidence.
form,
alors,
protégés
century,
doté
lik@@
Programme,
amende@@
ignent
établis@@
vions
condemning
noticed
devenus
high-level
yougoslave
dér@@
d'aboutir
agreeing
autom@@
swift
ailed
instituant
africaine
hou@@
L'article
nette
militarisation
reprend
Eur@@
blam@@
Chechnya
arrested
réforme.
d'aujourd'hui.
instructions
incar@@
dépu@@
surveill@@
belle
tage
te?
modifiée
Écos@@
Quels
suivantes
soulevée
unemploy@@
ry@@
(M@@
ung@@
clandestin@@
déployer
indéni@@
ologiques
Madam@@
religieuses
élection
l’éducation
veri@@
mann,
Paci@@
Albanian
intégrées
Objet
blan@@
sympathie
persecution
suspend
quotidienne
ency,
sho@@
governance.
concernés,
centuri@@
fermeté
comptes,
Regi@@
mess@@
protège
rencontr@@
port.
quarter
fossi@@
l'An@@
tig@@
uses.
sée.
knew
Sudan
acquire
industriel
histoire.
partner@@
l'institution
euros.
garanti
geared
onnements
economies.
notic@@
profile
awaiting
table@@
ci
abro@@
TI@@
affe@@
finir
transitoire
performances
strate@@
Justice,
dessus
sensibilité
mutually
sts
précédent,
établ@@
moi.
officially
gal@@
mail@@
Pan@@
ra.
knowing
d'ouverture
centrale,
rejected.
sertion
symbole
patience
pensé
pes@@
renfor@@
africains
ka@@
appropriate,
respectueux
Hague
entail
Autriche
Freedom
drin@@
irresponsible
viewed
wind
lorsqu'on
persu@@
appropriés
Moldavie
sources,
l'électricité
Goe@@
phra@@
degra@@
separation
rather,
compensate
deep@@
abilité,
Gar@@
fair@@
Sav@@
minorities.
intergouvernementale,
quickly,
biocarburants
douane
Cyprus,
al?
l’état
harm@@
Here,
maladi@@
route,
breaches
compt@@
principe.
arisation
jeu@@
responsible,
hous@@
rapports.
parliaments.
unie
l'identité
substances.
enz@@
Verhofstad@@
meeting.
impacts
éleveurs
municip@@
tribu@@
lancée
manoeuvre
pledg@@
homog@@
chera
cement
Much
D'où
disrup@@
rapidité
quantities
U.
proving
opérationnel
help.
doute@@
demeurent
porters
Quin@@
said:
moment-@@
affirment
disease.
Socrates
owe
l'OC@@
deadlines
rendra
intr@@
comitology
souffrances
dépour@@
intérimaire
partial
Bre@@
avancés
éclai@@
spiritu@@
lui-même,
profondes
ahead.
000 @@
Galile@@
reçoit
it-on
attendu
inscrits
Mark@@
pap@@
compati@@
achever
reconnu@@
revealed
démocratiquement
biodiversit@@
séche@@
ferrovi@@
solv@@
politics.
abstain@@
attenti@@
Director@@
l'éle@@
till@@
Nations.
l'assurance
aises
(B5-0@@
que;
restricting
déroulement
solides
offerte
socialist
cessé
confor@@
same.
d'énergie.
Confederal
personne,
signification
2001/@@
alleged
poli@@
Mediterranean.
pillars
horizon@@
is?
suggé@@
conse@@
parvient
Rome,
by,
orders
l'Allemagne,
manifesté
abouti
pluralisme
short-@@
active.
d'avancer
proposed.
Kall@@
bafou@@
speaks
ACP.
armées
spectre
budgétaires.
grown
strateg@@
steel
However
agriculteurs.
Ca@@
ke.
chantiers
Beijing
(démocrates-chrétiens)
achie@@
encad@@
says,
inland
brief@@
à,
machine
leu@@
diminis@@
responsible.
l’impact
Allemagne.
GMOs
/99
will.
eu,
m’a
tone
l’environnement.
portug@@
am.
zer@@
faus@@
Paragraph
votes,
jeopardis@@
portugais
expen@@
delay.
réfugi@@
rejoint
advocates
atrices
complexity
igne
Marí@@
maj@@
relati@@
Ele@@
1993,
challenge.
provoc@@
portu@@
needs,
experience,
voitu@@
call@@
ked,
vol
sés.
Thir@@
montag@@
excise
envisagé
régionale.
soit.
plans.
soulignant
vigilant
grecque
discharg@@
Da@@
réaffirmer
positions.
Br@@
oura@@
èrement,
goti@@
dépendra
stopped
Maastricht,
arity
l'OM@@
vitally
anony@@
Pact,
sufficient.
efforcer
formed
tolérer
cle
towns
unités
intégrés
beneficiaries
noms
expenditure,
footb@@
strange
explic@@
intensité
dess@@
confronté
people@@
infl@@
épidémi@@
ressenti@@
Basque
mail
d’aide
taxes,
intérieures.
l'économie.
fraud.
internationally
organisation.
ck,
want.
philosophy
loi.
researchers
décembre.
circonscrip@@
-year
contac@@
Several
s'impose
s'adapter
d'emploi,
destro@@
concerns,
surviv@@
food.
labell@@
bananes
d'activité
CC@@
isolation
d'initiatives
operation,
trained
input
succès,
wanting
suddenly
concrètes.
atoi@@
considérable.
côti@@
effectuées
étiquetage
assistants
abilité.
aviez
Méditerranée,
inévitablement
j'invite
deven@@
interroger
adéquate.
ECH@@
difficiles.
coeur
Unfortunately
trouble
adapting
croit
asing
throw
opposition,
correcte@@
éman@@
U,
stri@@
reconci@@
pick
Wat@@
refl@@
Thus
ralli@@
Là
6%
amor@@
't
traçabilité
vé
adaptées
erro@@
factu@@
Watson
ding,
médias.
juri@@
réviser
signals
insist@@
histor@@
4.@@
enseignement
ths
broken
ultérieu@@
Heure
ut@@
artisan@@
Ben@@
differing
thly,
s'agit,
these,
IF@@
bee@@
ators.
attended
wards.
provisoi@@
d'éliminer
additionn@@
Azn@@
e".
purchase
groupes,
empêch@@
Pou@@
entière.
participant
constitutionnelle
extérieures,
erreur.
25 @@
flottes
d'arrêt
TO@@
voisins,
bottom
immediately.
verts
introduites
12.@@
présidences
avoc@@
incin@@
producers,
identique
coord@@
opposants
quasi
ilities,
telephone
conjoin@@
agissent
linguistique
nous-@@
ouverts
d'envoyer
ps.
SE
learnt
dign@@
d'asile.
Third
C5-00@@
cherch@@
sep@@
formidable
explicite
déterminé
donateurs
automati@@
genres
Maintenant,
l'ESB
Puisque
connaissance,
enceinte
contribution,
ished,
chu@@
confrontation
fulfilled
d'effectuer
anticip@@
moderniser
achev@@
Youth
janvier,
d'intérê@@
esclav@@
WTO.
one's
nord-@@
littér@@
implies
supporters
bag@@
démontrent
appara@@
prévention,
fédérale
commer@@
forte,
remon@@
dictatorship
all-@@
terroristes.
pension@@
grave,
essais
approfondi@@
voie,
existe,
S'@@
Sharon
escape
Rü@@
withdraw@@
track@@
relationships
ferti@@
portera
Ol@@
stocks.
l'écart
es!
menés
abordée
excep@@
leav@@
bridg@@
dano@@
barbari@@
qualification
d'énergie,
Han@@
ums
Irak,
migration,
alimentaires,
Kong@@
empêchent
révis@@
item@@
namely,
dét@@
dimension,
allow@@
BE@@
fondamentales.
alarman@@
amment
vastes
evening.
positively
detail.
enterprise
autonomous
externes
scrupu@@
sincères
obli@@
cally,
obje@@
dée.
enh@@
pav@@
d’origine
9%
excessively
générale.
ait.
désarmement
poursuivi
brè@@
naï@@
Brazil
Political
massacre
against.
Galici@@
diam@@
opoul@@
logement
Gall@@
j’estime
esi@@
imposent
presen@@
holders
entre-@@
entraî@@
ever,
famille.
atmosphere
utilité
exercée
raisonnable.
hypocr@@
clonage
mêmes.
inhér@@
modes@@
structured
er;
finalement,
forcément
voix.
cross
pulsion
Equ@@
quiconque
composante
disponibles.
vici@@
dessous
Coun@@
rin@@
impliqué
futur.
bien-@@
peut-on
accueil
d'activités
trice
authority.
trafic@@
licenciements
depri@@
Freedoms
fishery
slaugh@@
ation"
l'importation
5-00@@
énonc@@
Programme.
Turning
urgence.
205@@
deterioration
votera
Hongrie,
Treaties.
tire
Monday
approuvés
India,
meurent
majorité.
ultrapériphériques
doulou@@
presse,
jugés
later.
existante
bridge
immigrants,
clandestine
descri@@
particular@@
Contrairement
compatibilité
protest@@
improve@@
Customs
k's
fi
implic@@
Slovenia
turque
occasions.
interrom@@
État.
everyone.
extradition
habitant
évidente
dotée
air.
Gree@@
predecess@@
renewal
peines
frustration
over.
Sur@@
agree.
everyone,
floods
dramatique
D'abord,
examen@@
l’OM@@
possibles.
craindre
shif@@
effet.
automatic
ound
Bush@@
impact,
Schmid@@
législatif.
detail@@
disadvant@@
update
exercent
refusent
victims,
gie.
mé,
Sarkozy
axée
execution
militaire,
crédit@@
quotas.
Tunisie
hâ@@
s'appliquent
1998@@
diplomatiques
pouss@@
stay@@
amené
chaos
Ven@@
ds@@
character
Syria
lend
apti@@
h30.
pped
cru
gique
dépar@@
Justice.
août
l'em@@
précédemment,
prudent
obliger
tacti@@
cation
spr@@
smoking
š@@
aise,
modifiés
extérieures.
university
voiture
substance.
flag
projets.
halt
arbitrary
aliz@@
thirds
adequ@@
inté@@
subord@@
affectent
tiv@@
(INI)@@
fraud,
Christians
mieux.
ciné@@
wo@@
comman@@
istan
israélien
réforme,
auteur
jouets
Corbett
mans
nommé
collap@@
absent
apparti@@
foodstuffs
jal@@
climati@@
mandat@@
Europe:
d’éviter
cattle
Funds.
mesure.
concours
correspondent
en-@@
maison
translation
britannique.
lai@@
Accordingly,
inflig@@
manu@@
Em@@
floor.
media.
bilatérales
lengthy
derogation
sol
Friday
therap@@
ulg@@
rencontrent
souti@@
pées
nées.
compatrio@@
satellit@@
these.
agg@@
Europeans.
allégations
provisions.
verrons
citation
disregard
September.
launching
broadcas@@
celle-ci.
formulated
affirmation
SMEs.
inévit@@
attar@@
orable
avril,
ert
tendency
tré@@
familiale
challeng@@
faster
mic@@
Eng@@
compétent@@
draw@@
New@@
quotidien
dare
mixed
aking
formation.
mêmes,
conventionn@@
targets.
eter@@
jusqu'
bli@@
(COS)@@
océ@@
ys@@
geste
centrale.
èrement.
d'émissions
pèse
continually
consumer.
effe@@
depart@@
sach@@
d'attirer
au-dessus
Luxembourg.
ss-@@
Trans@@
knowledge,
burdens
estimations
repeat,
lux@@
d'éléments
enthusiasm
bref,
ong
Servic@@
founding
apparu
différente.
life@@
Lebanon
péd@@
illégaux
yar@@
courageous
aine,
l'humanité
d'écus@@
ssi@@
Husse@@
symbol
honor@@
accordées
Equal
preference
sélecti@@
lez
Global
entier,
aging
Bl@@
returning
ve?
transparent.
Belgium,
European@@
regrettons
Doy@@
exclusion.
fied.
constructeurs
stated,
d'harmonisation
implementation,
guidelines,
dévas@@
CS@@
publiquement
frequent
métho@@
poursuites
ps,
offences
ator,
endroits
UR@@
marri@@
ish,
proportions
procè@@
home.
faudra@@
L'idée
concerné
stupéfi@@
tourism,
ouch@@
Espérons
exception.
weaken
gré
quasi-@@
pes
Whether
commencer,
l’avenir,
challenges,
authority,
aim@@
contest@@
monopoles
gel@@
pity
opérer
lucr@@
miss
nets
expecting
Don@@
ape
d'investissements
gents
populations.
shame
Mexico
hide
large.
dissu@@
résolue
Syrie
Somm@@
d’application
distortions
IG@@
Ethiop@@
fem@@
month,
sensibiliser
modernes
manufacture@@
lia@@
univers@@
auspices
ani
dialogu@@
d'origine.
margin
pursu@@
Switzerland
artic@@
pluri@@
candid@@
constitutionnelles
professionnelle,
donn@@
stood
studi@@
Ev@@
condem@@
erions
concessi@@
faiblesses
chair
Israel.
menting
remark
adjus@@
est-@@
progrès,
députée
guidelines.
orph@@
prédécess@@
renforcera
déclench@@
king,
Op@@
balance,
l'Autriche
planète.
sphère
délég@@
n'avaient
Indian
members,
groun@@
dépassé
minutes,
accordent
forec@@
stratégie.
billions
diplomatie
soulevés
seri@@
Ange@@
hauts
céder
valeurs,
sexes
watch
constituency
obé@@
d'asile,
Libya
rene@@
justified.
blocking
gies.
d'associ@@
risques.
informe@@
appliquant
exploited
exceed
approvisionne@@
bigger
budgétaires,
flou@@
vitale
argent,
Conservative
merit
prochain@@
mi-parcours
platform
registrement
ender
s'occuper
transi@@
hop@@
ativement
lacun@@
Suisse
réglementation.
minorités,
terminerai
raised.
touched
Londres
47@@
engendre
confid@@
l'ab@@
21,
opens
languages.
cod
Germany.
lining
femme,
décisions,
sérieux,
sends
tain
attente
unilatérale
perç@@
deal@@
Baringdor@@
précisé
destroying
Belgi@@
dable
connexion
celles-@@
vois@@
transf@@
McK@@
apparaissent
modi@@
nement,
vo
lifting
cartes
génocide
intéressés
computer
l’introduction
weeks.
ruled
risk,
sing@@
abstenu
multitude
sure.
pénurie
attentive
Roth@@
Gauche
gê@@
coura@@
May.
s'impos@@
bert
et-@@
nulle
législature
capture
mad@@
entit@@
Tcher@@
rapporteurs.
ón
souverain@@
km
de?
tres.
tors.
phénom@@
admis
s’ils
sympath@@
l'intégr@@
Ir@@
réexaminer
aie
obligé
broadcasting
plo@@
Kh@@
Estoni@@
applaud
semblerait
nationalis@@
ten.
(1@@
os.
document@@
zen
sorti@@
ro
brû@@
accountable
kers
naturelle
dangereuse
idéal
defended
chaînes
J'approuve
l’engagement
structures.
cir
actuelles,
erly
irs.
aurez
modific@@
commencerai
dépense
recourse
say:
Santer,
and-@@
répar@@
associé
fonctionne@@
cinquante
humanity
tu
doing.
déplor@@
toni@@
cible
scale.
injuste
levi@@
tch@@
disposant
parallè@@
isse,
qua
brevet@@
commitments.
plans,
subsidy
position@@
Vietnam@@
arrêté
ously,
communities.
dédu@@
atori@@
integr@@
reusement
Congrès
airline
élimination
pouvions
trends
prendre.
treaty.
Sous
l’élaboration
complexe.
?uv@@
d'innovation
El
structures,
Wednes@@
required,
d'investir
existence.
Guine@@
passe.
answer,
job@@
secteurs,
government@@
advocated
channels
patri@@
Finalement,
suivantes:
prevail@@
continuity
scandale
égale
patern@@
un.
résultats,
aler@@
produite
task,
IV
severely
safer
enjeu
specific@@
biologique
conférences
secteurs.
Hungary,
potentiellement
J'aurais
Peti@@
souplesse
suspici@@
demander,
ably,
mieux,
- @@
assassinat
Jean
mainstreaming
vers,
J’estime
Brit@@
votons
Berlin,
aries,
son.
Palestine,
préal@@
affirmant
twelve
argued
représenté
subi@@
hormon@@
Finland,
auteur.
modulation
d'exploitation
soutenir.
operation.
Ou
skill@@
citerai
lèvement
difficulties,
âgé@@
scar@@
office,
chance.
Tourism,
47
industrielle,
harmonization
interfere
d'Afrique
refléter
sensitivity
devastating
envoie
visu@@
locales.
vulner@@
distances
Millénaire
speculation
soutenus
èmement
tors,
subordin@@
sation
infin@@
ski,
boule@@
retraités
revise
Russia's
desi@@
exclus
convincing
candidature
ically,
Green@@
frag@@
prepar@@
guiding
avenir,
uses,
bris@@
environnementale.
punishment
andum
dresser
3 @@
"non"
spéculation
policière
Armé@@
spéciales
ity;
occidentale
Gro@@
accepter.
Nigeri@@
through.
adhere
entraînent
renvoyer
Washing@@
normalement
nuire
conscience,
aspect.
deemed
Liberal,
focus@@
utile,
d’informations
d'emplois,
scep@@
chapitres
pushing
manières
where.
Speci@@
outline
parallèle
d'Israël
tôt,
suivi@@
tres,
MEP
claire,
sine
Der@@
deca@@
Produ@@
stupi@@
septentrion@@
require@@
-O@@
November.
Philipp@@
Sem@@
pouvoir.
extérieure,
juin.
introduite
perpétr@@
complais@@
membership.
counter-@@
sively
families.
cooperating
instability
serez
value,
progressé
GP@@
&#x02BC;@@
thoughts
remit
Brésil
élar@@
refrain
Heureusement,
action@@
vian@@
diriger
offen@@
Sir
drastic
pharmaceu@@
mènent
Soudan
élab@@
owners
rencontrés
satisfaite
Taiwan
dear
oublions
passion@@
mentioning
versions
spar@@
néfastes
d'acc@@
energy-@@
civili@@
guidance
isions
tot@@
people’s
aboli@@
expir@@
équivoque
ester
interfer@@
d'accéder
rapproch@@
égu@@
raisonn@@
justifié
appliqués
mel@@
suit@@
conducting
ctor@@
underlined
ger,
routière
l’évolution
consolidated
subsiste
entrepreneur@@
rescue
smooth
nex@@
elles-mêmes
affectation
tue
oire
suivants
sson,
contex@@
web
affic@@
office.
aven@@
7-0@@
panel
Gran@@
European,
2015.
stone
maintenu
confrontées
convention.
sides.
capacity.
forcing
killing
8%
alter
commissi@@
rose
d’assurer
villages
navire
achiev@@
industrielles
Autorité
réputation
hongrois
tendre
2000/@@
adjustments
islands
receives
après-midi,
15%
zu
symboli@@
acro@@
understand,
l'agence
résol@@
industries.
d'apprendre
soi.
counting
explosion
l’Agence
sortie
illegally
codécision.
Rapporte@@
yeux.
îtra
reconnaissent
linking
Treaties,
ité?
retrouvent
l'enfant
Pact.
eco-@@
consultation.
profess@@
signaux
dos
matériaux
movement,
prélimin@@
Martí@@
ozone
récession
Bulgarie,
émin@@
reinforcing
mère
partnership.
WTO,
fulfil@@
rir
élargissement,
attaches
volatil@@
dération
eth
lobbying
consulté
ant:
étendu
Bulgarian
influence.
Chil@@
January,
st.
eigh@@
command@@
absorption
propose,
UC@@
vign@@
économie,
Romani@@
opérationnelle
ey
fragi@@
supplémentaires,
planét@@
hectares
informing
ran
discovered
Macedon@@
harmoni@@
desira@@
éventuel
emprison@@
lacks
trouvée
story
l'accroissement
Spe@@
often,
threatens
s'appliqu@@
clubs
TS
cooperative
extraction
congratul@@
frappe
légiférer
ty-@@
tabac.
étrangère.
maternity
kind@@
OECD
charged
fuite
qualifié
homes
reconnue
nano@@
orientale,
back.
Everything
rapide.
established.
traditionnelles
adh@@
jamais,
n’existe
l’action
d'éch@@
credit@@
Afrique.
traverse
2008@@
harmonising
l'infrastructure
baser
programme@@
mix
litt@@
l'actuel
1990@@
missions,
translated
language,
Wednesday
aisons
entré
Venezuel@@
différends
juste.
conditional
répondant
opt
économie.
opposing
gau@@
religieux
Groupe
lives,
advisory
judiciaire,
industr@@
aches
encoun@@
techniques.
adver@@
Transnistri@@
Arabi@@
illicit@@
armes.
massac@@
Liban
Energy,
médecins
irons
âch@@
enko
eure
moment@@
étiquet@@
Johannesburg
/99)
developments.
directions
GUE/NGL.
contribueront
statisti@@
mers
parvenir.
destabil@@
mentionnées
5-@@
refugees,
recomman@@
sif
20 @@
(COD))
tough@@
confère
spectrum
veget@@
hostil@@
Tchétchénie
journaux
inequality
demonstrations
Leban@@
immédiat
freedoms.
SO@@
circuler
Members'
manipulation
ête
stream
encies
ites.
aucunement
es".
awarded
worse.
ticul@@
fixée
autonome
musulman@@
contrefaçon
tested
l'adhésion.
encouragé
discrep@@
Mer@@
dream
rées.
Seventh
prévoy@@
l'éch@@
ination
oriented
west
s'im@@
d'a@@
parvenir,
SA
rassurer
ships,
sus.
Met@@
deple@@
patients.
Comm@@
reux,
choix.
ed?
surven@@
lived
pourrait-il
veterinary
Hor@@
d'identifier
members.
suspicion
magni@@
distinguish
meaningful
depl@@
peuples.
gue.
nuisi@@
Tele@@
handle
semaine.
quin@@
a)
ese,
l'UEM
blocage
expenses
allocate
patents
continent@@
assimil@@
sessi@@
diesel
développées
month.
comprenant
eing
précieuse
type.
voices
shoulder
Maritime
complaint
évi@@
Control,
pratiques,
bureaucratique
invités
avor@@
Fisch@@
difficultés.
disparaître
émises
artificial
baisser
distinct
tter@@
élément@@
instauration
spati@@
guard
Bref,
nothing.
Sam@@
Gebhard@@
repu@@
égal@@
Déclaration
begin@@
Amsterdam.
OC@@
pha@@
Špid@@
nom@@
refugees.
décid@@
recommen@@
Scotland
public-@@
yes
tal
Très
Kyoto,
déser@@
éthi@@
devi@@
privé.
mais@@
bloquer
peuples,
contrôlé@@
d'engagement
Thom@@
underlines
rarement
Zimbabwe.
radicale
énon@@
Gaza,
rapide,
momentum
fragment@@
chargées
socio-@@
appartenance
ressing
comptons
disease,
humain.
reposant
Herzegovina
accordingly.
supply.
enseignements
ez-vous
derogations
améliorée
comptes.
Fu@@
sch@@
opportunities,
ust
taire
Dur@@
highlighting
insisted
Mauritani@@
delivery
make.
Dru@@
terre,
nur@@
Caucase
cosme@@
dam
inadmissi@@
combinaison
gée
inje@@
Hai@@
lament@@
ance:
Graefe
signat@@
judged
typical
m'exprimer
imple@@
Progress
1991
Mediterranean,
géographiques
pâ@@
Celles-ci
L’UE
L'année
sentent
report's
author
adapté
awaren@@
assumed
lè@@
supprimé@@
juridiques.
less,
ont.
equality,
étrangère,
diseases,
dépensé
mér@@
accidents.
impossible,
Surely
2001@@
l'interprétation
Ce@@
deployment
pover@@
préoccu@@
im
insistons
G,
want,
carburant
100%
Slovénie
abandoned
tape
ately.
circu@@
Te@@
moins.
well-known
d'emploi.
fixant
idea,
take.
cyn@@
l'occurrence
owned
pil@@
gaps
140@@
quo
mostly
rons-nous
industrialised
alloué
complementary
formellement
O.
oné@@
tolerate
blocked
maritime,
foods
ante@@
ceux-@@
incontestablement
conom@@
supple@@
decentr@@
existantes.
appartiennent
totalitarian
liter@@
delayed
syner@@
ader
Nassau@@
l’histoire
n-@@
hil@@
voi
Off@@
ouvertes
finan@@
exporter
lati@@
Ses
garantira
confiance,
Duisen@@
psychological
excus@@
politics,
traî@@
reviewed
mala@@
welcoming
bling
definitions
d'entrer
crises,
harmonisation,
fen@@
Pur@@
serait-il
comparer
foot
reuses,
sives
agne.
profitent
extérieure.
juillet,
Law
perhaps,
tti
replacing
évoquée
due.
doctor@@
solenn@@
tably,
gies,
fiés
Directi@@
status.
soud@@
Iraq@@
d'essayer
that?
fossil
attempted
Ash@@
esses
d’établir
inflexi@@
concernées,
waste,
accept@@
précédentes
coutu@@
Lae@@
minimale
thiop@@
pling
yons
choice.
personne.
tourisme.
constructive.
priorités,
Cyprus.
suivent
suivant:
imposée
packaging
couvrant
roumain@@
ssen
servi
l'ég@@
ACP,
superfici@@
al'
aul@@
happened.
allou@@
dialogues
qualifiés
rate.
grade
away.
existed
inability
formulate
environnement@@
ent-elles
copyright
concréti@@
minorités.
d'expliquer
danger@@
ables@@
white
doigt
Bus@@
agir.
officielles
agend@@
couver@@
highligh@@
tos
reception
infringements
enfre@@
sus,
claiming
worker
fournie
consum@@
affaiblir
forg@@
settle
trim@@
Ander@@
Vir@@
apprécie
cadre.
exception,
consommateur,
Kofi
tonigh@@
simultanément
réacteurs
protectionnisme
ta.
refuge
could,
Ludfor@@
scre@@
poursuivent
démo@@
weaknesses
regim@@
attendant
equipped
respectés
précédent.
détéri@@
déposées
inspiration
celui-ci.
financées
wed,
prolongation
convention,
legitim@@
problematic
attends
aéroport
suffer@@
fermes
recul
communiqué
domination
considéra@@
appareils
compromettre
parlement@@
attract
pru@@
marquage
négli@@
dismantling
hélas,
Nuclear
auparavant,
double@@
Wallström
disproportionate
structure,
Patten,
délais.
soviétique
emp@@
installer
treaty,
RO@@
fraudes
H
contraires
incomes
corri@@
isées
irs,
traceability
technically
events.
provisoire
super-@@
quité
opérabilité
fléau
périphéri@@
écos@@
légèrement
produces
république
douanière
heures)
gross@@
raisonnables
loi,
suffisant.
satisfactory.
ared
eration
souffert
davantage.
sooner
ced.
treatment,
memor@@
diagnostic
produit.
much-@@
taxation,
famine
Culture,
stakehol@@
catastrophe.
49@@
plenty
gent@@
Gol@@
producers.
cultur@@
following:
d'origine,
painful
forums
effectiven@@
néerlandaise
Hier,
misleading
responsabilités,
belongs
s',
aît
Évidemment,
Three
Finlan@@
contribuant
s-nous
restoring
buying
'yes'
recevront
compréhensible
Thursday,
Franc@@
dépas@@
persé@@
moteurs
risque,
chement,
positifs.
j'approuve
oublié
abe@@
Grande-Bretagne,
inevitable
Grèce.
cide
vehicles.
alleg@@
drogu@@
seriousness
veness
Pack
presum@@
industries,
témoins
carb@@
Ö@@
prendre,
disappointment
jamais.
historique.
Garri@@
acceptée
l’organisation
drugs.
ministérielle
respon@@
poursuivi@@
cure
introduces
Haar@@
existants.
aban@@
kin@@
Prize
10.
torture,
propagation
committees,
measure,
wal@@
spend@@
11.@@
avoided
mentionn@@
imag@@
vera
rurales.
déplacement
Mins@@
manquent
misère
sham@@
Italie.
siég@@
States’
sée,
épargn@@
parliamentarians
extrémis@@
postponed
capitalist
l'Assemblée.
excuses
d'I@@
déclin
automobiles
février,
maritime.
orientale.
precedent
appellent
Congress
prolifération
défail@@
Reh@@
Méndez
réalisations
exempt
ité:
méditerranéenne
gestion,
thers
dépôt
sûrement
suici@@
preferential
icul@@
Rompu@@
fruitful
successful.
Cypriot
investissements,
narrow
Cambo@@
conçu
disciplin@@
alliés
welcomed.
finance@@
filles
contributions.
lift
éthique
how,
Peter
seats
comportements
kind,
Chypre.
mortalité
expressions
Fren@@
aston@@
cercle
sidér@@
biofuels
contraint
Sloven@@
wars
confronted
visibilité
d'interdire
Court.
approvisi@@
22,
es)
drame
migratory
intitulé
bras
électroni@@
rempl@@
vieille
engagées
s).
recommends
hic@@
Reding
soutienne
servira
bét@@
ts-@@
enregistrés
yesterday's
gered
yez
voisin
pled
opath@@
s'engage
opposée
d’obtenir
organisées
terribles
mentionnée
globalised
achar@@
recommander
évoqués
assent
open,
proposé,
emphasising
satisfaisant
l'eau,
détaillé
passées
honorable
spécifique,
até@@
youn@@
préfère
Trois
graphi@@
correct,
Treat@@
figur@@
fleets
insatis@@
exercising
déce@@
doors
Monitoring
conteste
relâ@@
apo@@
d'Amsterdam.
niveau,
soon.
prevents
s'effor@@
usine
foreseen
inconce@@
militaires.
confined
égar@@
passive
prohibition
civilians
thémati@@
idea.
accompagne
ennent,
om,
onze
accompanying
régn@@
socialiste,
ariat
créés
comparables
product.
standar@@
opti@@
sommet,
mol@@
owing
voyages
professionnelle.
fiel@@
caractérise
Min@@
récupé@@
ja
dangereux.
inventions
mondiales
jeopardise
environnementale,
accent
contente
ducation,
functional
donors
era.
ramener
dings
cultures,
l'Irlande,
day@@
democratic,
restreindre
risks.
débar@@
honte
eries
pour,
diversity.
LE@@
portuaires
ménag@@
D'ailleurs,
intentions,
confin@@
cally
tack@@
Mercosur@@
innoc@@
stratégie,
Finance
accélération
warn
disponi@@
Greece.
provoque
small-scale
half-@@
terrain,
asser
precondition
empêché
Presidency's
Islam
González
eve
départ.
tun@@
accordons
semble,
genti@@
court.
élevé,
eau,
Cun@@
shore
shoul@@
units
gens,
référendu@@
requesting
forêt
fraude,
hélas
start,
total,
NE@@
confine
surg@@
Guatemal@@
unite
française,
Slovenian
conséquences.
péni@@
Bulgaria,
expose
compétents
millen@@
gies
Europe;
pronoun@@
spécifique.
Nig@@
goals.
submitting
communications,
Cer@@
groupes.
l'année.
27,
fardeau
burden@@
ves:
abstain
recul@@
déjà.
practices,
bon,
apping
draws
légalité
déboucher
déroulent
déchets,
ma.
débatt@@
assisting
conviens
guil@@
IA@@
Monsieur @@
exclusion,
l'attribution
wish,
entends
entraînerait
Des@@
accompli.
diction
pan-European
teaching
concrétisation
Shar@@
aire?
allouer
ini
inspecteurs
hydrog@@
acu@@
thin@@
intéressante
interaction
définitions
hypothèse
l'ONU,
graph@@
Dou@@
nécessit@@
sièges
ceil@@
s'é@@
promeu@@
clé@@
complying
suffisent
constat
understandable
tragiques
genocide
améliorant
cigarettes
l’agenda
Comp@@
dence
crivent
gigantes@@
exercé
conflit,
ent?
religion.
frontier
adhère
rule,
Gulf
evolution
accusation
emball@@
thon
divergent@@
privé,
bâtir
moyennant
reproch@@
tho@@
tely,
saisi@@
apologise
ă@@
jouir
arisen
égi@@
July,
cease
War@@
Guantánamo
reiter@@
erie
côte
connus
ships.
earlier.
dominated
multiple
content,
acqui@@
venus
effects.
consacre
stable,
recover@@
2006@@
withdrawn
Sen@@
découlent
cofinancing
concitoyens,
s'av@@
deplore
check@@
reserved
aboutis@@
families,
identiques
swiftly
newspaper
sera,
inacceptab@@
authors
Chancellor
ministres,
ole
enregist@@
agh@@
radicalement
finir,
lui.
paradis
comitolo@@
arrière
prendront
explicit@@
financièrement
résumé,
Corn@@
pois@@
nuis@@
signatu@@
officiel
soign@@
entails
déséquilibre
prérogatives
52
ête,
theme
ich
visas,
disasters.
thrown
d’utiliser
négociation.
Vis@@
massacres
sophis@@
oth@@
immigrants.
assembly
é:
sciences
resort
élarg@@
l’avons
deter@@
ût
rements
parent@@
honnête
charter
Sán@@
redevances
MEPs,
participated
bill
d'amélioration
opposition.
culp@@
girls
l’établissement
emergence
prestataires
persis@@
paragraphe @@
l’inst@@
acceptent
j'entends
HC@@
sauvegar@@
scandaleux
disposions
universelle
détach@@
incluant
législatif,
extérieur.
administratif
prématu@@
préalables
cabin@@
ouest
énergi@@
l’amendement @@
rationn@@
mondi@@
tia
faul@@
intéri@@
everything,
originaires
again@@
réjouit
eva
prejudice
od
LI@@
Ur@@
130
seriously,
pomm@@
extrémistes
positifs,
ira,
intolerable
petro@@
whether,
supplied
colonial
ro,
times@@
confon@@
l's
arsen@@
l'élection
volontaires
terroristes,
avez-vous
2007@@
tour,
suspect
traged@@
zéro
complexe,
inspired
accid@@
194@@
tent,
souterra@@
methods.
(COD)@@
nucléaires,
consumption.
représentés
prises.
White@@
condoléances
London@@
carbur@@
wrote
isser
abide
spéciaux
operates
T)
ten,
imperialist
acceptés
reconnus
ajouté
carrière
resteront
fiers
essentielle.
Asia,
Environmental
Approval
distortion
ilo@@
décidée
College
réflexi@@
Very
souscris
teachers
option.
rob@@
Hugh@@
l’existence
circulation.
Georgi@@
réalistes
formula
oriental
affér@@
main-d'œuvre
primes
recueill@@
off.
stam@@
better@@
typi@@
Europé@@
exigeant
l'arrivée
neo-@@
retra@@
dée,
protected.
components
septembre.
areas@@
menacent
découl@@
chance,
ambitieux,
manufacture
Cre@@
supplémentaire.
l’espace
nombrables
idéologie
perce@@
l'obtention
d’in@@
phases
wai@@
gé,
Belgrade
genre.
l'autonomie
essentiels.
Monn@@
heav@@
supplement
GMO@@
envisage@@
delivering
contractual
accession,
Journée
risques,
indubitablement
G.
ounds
second-@@
parer
Sé@@
motion.
serait-ce
crucial,
prescriptions
rendement
co.
l'occurrence,
réitérer
hôpit@@
TV
volunte@@
laws,
entrave
l'ét@@
médecin@@
partagée
préoccupé
9.@@
rejets
Libye
relevé
assess@@
s",
mitte@@
d’atteindre
message.
Soudan@@
sida
bénéficiant
vity
"la
sse
pipel@@
porte,
permettraient
proxim@@
Cu@@
Nav@@
advise
Socialis@@
Ric@@
gases
help,
suffisants
confier
historique,
l'év@@
haine
dying
répété
englobe
représ@@
Montenegro
(L@@
difficiles,
measure.
Howit@@
diseases.
terror
feelings
oph@@
surmon@@
incorporation
reasonably
fishing,
Danemark,
travaille@@
Lanc@@
pushed
se;
staff,
justic@@
franchement
rien,
e-t-il
gouver@@
valeurs.
souviens
ency's
élevage
pipeline
5.@@
Italy.
revolution
Frontex@@
défi@@
compatibility
anglais
edly
agne
residents
précis.
family,
cident
Meanwhile,
clam@@
situés
remédi@@
movement.
due,
dissoci@@
négliger
2 @@
alib@@
ened,
limitées
conference.
confu@@
Buitenwe@@
tendent
L'adoption
cus
s'efforce
naturelles,
l'Espagne,
thrust
EC,
lobbi@@
voyageurs
dériv@@
isations
étrange
notable
player
passagers.
exigeons
ément,
adoles@@
Pré@@
nera
beings.
first-@@
Soyons
financially
station
pain@@
mai.
usagers
biologiques
ations;
embarrass@@
still,
NI@@
Rio
adjust
alls
Force
2002@@
entité
first.
shi@@
UK,
cour
Crow@@
gaining
equality.
benefiting
March.
composé
freedoms,
niveau.
recher@@
surprising
six-@@
bâtiment
fédéral
suffisance
strengthens
l’instar
larges
réussite.
chasse
Brok,
PSE,
testi@@
séle@@
imbalances
tonight
journal
promising
Spain.
clarified
reme@@
ambitieux.
retarder
privileg@@
tat
April,
speedy
plenary.
pensions.
secu@@
immigr@@
transportation
insofar
ry,
survive
Innovation
Sudan@@
Socialists,
journey
milieux
transaction
prop@@
homophob@@
soutiendrons
inutiles
lourdes
difficultés,
remun@@
tence
Has
worthwhile
mining
ler,
tenues
Obviously
déri@@
hémicycle,
monopolies
hum@@
tise
retourner
sentenced
flexicur@@
warrant
approche.
apped
Board
drugs,
naz@@
processed
lettres
moun@@
contraignante
Pé@@
d'action.
Posselt,
croient
incorporating
débats.
recognized
comment,
aine.
meu@@
produites
deepening
intégralement
aimerions
tomorrow's
drogue.
today’s
pous@@
tabac,
indignation
reconsider
Améric@@
request.
finlandaise
Pakist@@
parfois,
atmosphéri@@
exposure
patients,
ceci:
optimistic
merits
origine,
voud@@
qualifier
mutuellement
profit.
pric@@
gaspill@@
propagande
pointe
handicap
scénario
sociétés.
choic@@
conqu@@
it;
hier.
armes,
alternatives.
autumn
phase,
ancing
marges
alloc@@
taxes.
ny
judiciaire.
Myan@@
witnessing
scenari@@
impôt
gged
repressive
positivement
REACH@@
specialist
l’échelle
l'avant-@@
rates,
territoire,
exposer
ah
effectively,
interpret
permits
Johannes@@
successive
Obama
tisme
publ@@
approfondissement
Denmark,
nées,
élevés.
communist
échapp@@
Böge
mad
moderate
ground,
provient
rapporteure,
enthousiasme
teraient
Barro@@
personnalité
high.
sons
étroit
d'exiger
cells
humain,
substitution
vous-même
comparative
hasard
vins
reactions
scientifiques,
clôtu@@
sim@@
stabilis@@
sommets
atténu@@
foreign@@
entendu@@
surve@@
d'urgence.
libéralis@@
Together
Tro@@
purchasing
vention
réformes.
désigné
actuelles.
51
util@@
résidence
sporting
job,
lions
yesterday.
l'espé@@
oo@@
exceptionally
ample@@
2012,
Asia.
..@@
mercure
invali@@
sheep
perdent
Nobody
welcome,
workforce
20.
culmin@@
tells
fishing.
Arafat
procède
Ara@@
heard,
montre@@
dérog@@
ajouterai
Dr
social@@
abattage
Bou@@
égards,
vary
Federation
vis
liti@@
inno@@
encl@@
ao
writ@@
paramètres
sentences
condamnés
petitions
Secre@@
ell
file
lourd
spreading
pig@@
dea@@
présidenti@@
thes@@
ayer
prev@@
Dieu
oppression
substances,
Cl@@
Delors
hypocrisie
appelée
usines
ained
d'urgence,
strongest
craign@@
adoption,
screening
Mann
coer@@
D'
migration.
auparavant.
addressed.
blé
ni,
déplacer
fermet@@
maintient
capacity,
Berlusconi
Unless
BSE@@
sad@@
fraude.
Gibralt@@
producteurs,
motivated
Regul@@
réparation
ace@@
Fatuzz@@
fell
circum@@
aries.
ille,
Gaza.
l'éco@@
éloign@@
350
l'Italie,
d'engager
CIA
Air
banks,
mobili@@
ji@@
admitted
enforced
precedence
idée,
Technolo@@
l'avor@@
nie,
commitment.
réglementation,
primer
]@@
semblait
ately,
bid
d'affirmer
Lehne
judgments
longuement
sols
lendemain
jap@@
dité
oring
systè@@
forestation
experience.
den,
plate@@
dossi@@
partially
Article @@
domici@@
catalogue
utterly
Jarzembowski
reduced.
inherent
consultatif
newly
kidn@@
wards,
dilu@@
consumer@@
resist@@
Budg@@
accord-cadre
rapatri@@
Année
frame
works.
découvrir
éclairc@@
j'insiste
1989
pouvo@@
favorable.
vice-présidente
ene
late.
plaign@@
d'informer
iteront
contexte.
RT@@
capitales
Florence
23,
déception
faillite
scandal
quelques-uns
employ
terro@@
nécessité,
misunderstand@@
ites,
correspondant
Flyn@@
poque.
overcoming
rer@@
remarques.
concentrations
scan@@
language.
rées,
partenaires.
CO2.
Cohn-Bendit
s'imposent
independence.
d’autant
chal@@
Monténégro
cott@@
mandat.
l'innovation.
foot@@
wall
excellents
orer
tant,
Hezbolla@@
Michel@@
positions,
immig@@
offer@@
Liikanen
équipes
restrein@@
aura@@
Second,
jeu,
mandate.
xenophobia
forming
technocr@@
atmosphère
ambiguïté
Caraï@@
effectuée
annexe
strong,
retard.
liberalization
national@@
rattr@@
Annual
tibét@@
défavorisées
striking
engendrer
travaux.
doctors
EN@@
expanding
d'attendre
islamique
C'@@
racist
(B4-0@@
languages,
religions
deregulation
share@@
suggérer
modernise
produit,
inféri@@
(GA)
club
redundancies
délicat
obsol@@
persons,
majeu@@
mentary
evaluating
monopolis@@
indirectly
fondations
paramil@@
exprimé@@
career
network.
différents,
donnons
noté
isolement
replac@@
roo@@
coinci@@
impasse
mandat,
abatt@@
stipulates
police.
pratiquer
matter@@
ling.
disadvantage
ciation
maill@@
doctrine
XX@@
Grad@@
eted
views.
but@@
affair@@
référence,
(O@@
plate-forme
set-@@
este@@
tron@@
portfoli@@
Schrö@@
traitons
tant@@
exporting
témoignent
saying,
Nichol@@
rest,
d’emplois
réunis
start.
éprouve
Round
Liikan@@
tali@@
relevance
seek@@
achet@@
sures
étrangères.
xénophobie
politicians,
understands
professionals
finished
Kore@@
fisc@@
neighbours.
ou.
w.
éthiques
press,
personnellement,
revendications
parler,
flexi@@
développée
venture
inter
urgency.
branches
écra@@
renforcent
economies,
resume
Fortunately,
Trich@@
perm@@
goal.
ons:
palestiniens
noby@@
compréhensi@@
attentifs
fluctuations
prononcée
contraignantes
désigner
critiqué
met,
cheaper
October.
supply,
émergent@@
noy@@
restrain@@
député,
réuss@@
EP
Bangemann
pensions,
Viol@@
suicide
Autriche,
render
trouvera
synonyme
res"
arabe
gram@@
cap
augmentent
commitment,
permission
fairer
speak.
redundant
portait
nouveau.
actes.
Algéri@@
earthquake
d'hier
retraites
streets
d'harmoniser
TV@@
clothing
sacrifice
Convention@@
Pat@@
envisagée
Député,
l’évaluation
software
ally-@@
Milosevic@@
treating
Haut
reux.
ists.
warr@@
observé
ath
judges
Ministers,
Tob@@
profon@@
illez
spare
Paper,
accél@@
2002/@@
fond.
ange
responsabil@@
clandesti@@
labels
seas
J'attends
occupational
ino
Pacte
Algeri@@
cœ@@
Net@@
30 @@
énagement
Conservatives
docu@@
decrease
90@@
postaux
Lamassou@@
collège
marins
libérale
mercury
satisfaisante.
d'enseignement
circulation,
infrastructures.
engagement,
seuils
résident
Napolit@@
accueilli
perpétu@@
serving
tax.
cosmé@@
retro@@
outcome.
accordant
PPE-DE,
letters
collected
onais
investissements.
ation's
Ann@@
PAC,
list.
Chur@@
tobacc@@
créativité
Davi@@
conserve
évitant
Constitu@@
d'adhésion.
animals,
te-t-il
Mau@@
revue
introduits
ga
offert
Roumanie.
courses
lang@@
décrire
denoun@@
deeper
Harbour
fournissant
Quel@@
prior@@
redistribu@@
(CNS)@@
rêve
stake.
géri@@
dissemin@@
regrets
injustice
Kre@@
academic
foc@@
insi@@
depth
responsibilities,
ń@@
global,
reje@@
pp@@
Britt@@
aggressive
bone
peu.
Zimbabwe,
escomp@@
délivrance
ized
salaries
air,
Entre-temps,
culturel,
Canc@@
Non-@@
Rehn
requi@@
fili@@
response,
professeur
l'Office
assurée
humaines.
voix,
pion@@
Wil@@
existence,
Day
demanderais
technologie,
established,
renseignements
dég@@
C)
s'élève
attribution
fondamentales,
costly
populations,
diverg@@
see.
replacement
30.
abund@@
secours
Est-il
le?
tranqu@@
d'organisations
shortcom@@
libre,
feasible
hing
dedic@@
novembre.
crip@@
actuels.
incredibly
unacceptable,
devrait,
duration
participation.
Moldavi@@
ille@@
viability
labour,
Ferre@@
stret@@
parviend@@
two@@
ity?
films
transposed
re)
gé.
fassions
verdict
Pays
religieuse
enterpris@@
s»
préoccuper
conflits.
simple:
financing.
instead,
McCreevy
plain
æ@@
paient
celle-ci,
socio-économique
pilier,
measured
Support
coré@@
remarqué
Que@@
détruit
recou@@
rémunér@@
adultes
problème@@
souhaiterions
médicaux
intérêts.
votant
coast
Fav@@
adéquats
voulaient
intérim@@
pertinence
plantes
ignoring
commitments,
ox@@
benefited
nationalité
ez,
successes
kov@@
isl@@
ence:
chaleu@@
parlementaires.
Dev@@
débouché
run-up
merci@@
Swe@@
cycle@@
obscur@@
deliberate
ics,
complément
annulation
dettes
laws.
ctric@@
Lamy
s'opposer
Entre
regain
méthod@@
rates.
avou@@
d'êtres
perço@@
précoce
peuple,
maintains
indulg@@
12.
UE,
institutionnels
états
identical
conscious
n’ait
orig@@
mariti@@
papier
cteurs
detail,
axes
intensifi@@
toxiques
confront
tifs
infrac@@
heure.
abolishing
participation,
électoral
especially,
placés
empêcher@@
pluralism
Oomen-Ruijten
radiation
AD@@
coff@@
concrets.
Seule
ès.
informel
adaptés
semen@@
Barnier,
legitima@@
appelés
alogue
Sk@@
monu@@
tourne
déclaré,
unir
Palestine.
démarch@@
rur@@
slogan
sized
advertis@@
èmement,
conférer
escal@@
Cardiff
ger.
ily,
gagné
l'Institut
ajus@@
product@@
Puis-je
es»
dial@@
pression,
inex@@
arma@@
entu@@
fic
disasters,
Nothing
elder@@
propres,
happens,
regroupement
codécision,
Cologne
oned
fully.
Japanese
poussé
dépassent
améliorent
l'immunité
yers
démontr@@
incite
accompagnement
inali@@
manqué
moyens.
South-@@
turns
rejetons
2007-2013.
abroad
dupli@@
excess
py@@
dégagé
'The
mots,
fiscau@@
caution
documentation
too@@
flexible,
concerted
massif
montée
vehicles,
quick@@
achieve@@
Europe-wide
co,
batter@@
neutral
coûts.
reposent
fort,
extérieurs
crimes.
anticipate
free-@@
cards
fondamental.
compétences,
NGOs,
dignity.
compréhen@@
assumption
same,
l’Organisation
credi@@
500@@
ec@@
ombre
compe@@
help@@
re @@
migratoires
paci@@
privati@@
édi@@
Aujourd'hui
ø@@
completing
moi-même,
cautious
façons
immobili@@
Barcelone,
created.
consulting
privilège
control@@
l’augmentation
Mosco@@
Kingdom.
Made@@
S&@@
chet
family.
irlandais,
anding
arrestation
préférenti@@
compéti@@
urgency,
ment -
propres.
atively
Vitorino
mères
devriez
ch-@@
danger,
Media
developed.
price.
d’y
sont-ils
Mexique
stak@@
requis@@
increase.
February,
energies
justes
prévo@@
insertion
sah@@
tai@@
sympa@@
déloyale
Aid
ami@@
globale.
restant
pilier.
l'Est@@
tiquet@@
corrections
richesses
appoint
prison.
eventu@@
5-0@@
vache
tremblement
période,
inver@@
lav@@
memory
thing@@
formelle
d'enquê@@
ão
discours,
Lituanie,
opponents
urs@@
l’honorable
affected,
perpetrators
environnementales.
robust
stem@@
vain
slaughter
tariffs
communs.
surveillance,
rédi@@
fair,
ault
Inte@@
l&#x02BC;@@
pend@@
riv@@
témoigner
tabag@@
franchir
j'attends
harmonisation.
suppor@@
d'exécu@@
discover
sés,
chant@@
ed:
propo@@
équitable,
juges
assessment,
existants,
ame
affaibl@@
IMF
concurrents
atteler
d'évoquer
consisten@@
consign@@
Gas@@
courir
ECR
allons-nous
EURO@@
CFSP
cles,
Uzbe@@
conjoint
ONG,
Schroed@@
connex@@
distric@@
debates.
earn
souffrant
hesit@@
eux-mêmes,
ken
suspens
tyran@@
possibilité,
restoration
hitherto
Sain@@
fiscale,
contenti@@
Mas@@
filets
Posselt
points:
différentes,
spa@@
play.
resor@@
manœuvre
éradiquer
étend
guaranteed.
kilom@@
-free
chypriote
sensible,
recue@@
Tibetan
dix-@@
Vienne
footing
F)
européenne:
imposant
ève
applied,
fan@@
critique.
tori@@
gardant
conséquence.
significatifs
Congo,
gouvernements.
75%
exercised
objectif@@
d'élargir
taxation.
chec.
Englis@@
aimé
décharge.
référ@@
codification
ity:
announce
flying
contrôlée
Med@@
consolidating
suppliers
exposées
cornerstone
function@@
Frasson@@
tax,
contradictory
exprimant
time-@@
knows,
exigé
great@@
Leonardo
bétail
diversity,
Personally,
contenu.
sond@@
Korean
accords,
Augus@@
balance@@
colonies
consentement
bank@@
insuffisante
purposes,
peuple.
jets
sez-@@
examinera
(COD)).
adoptons
Lul@@
efficient,
ité;
ken.
acquise
ases
ponctu@@
Habs@@
débattu@@
valorisation
Oostlander
impo@@
protectionism
consensu@@
affectées
(CE@@
inflation,
trilogue
discussed.
know.
investi
Latvia
deg@@
worry
rentabilité
compétent
joins
avertissement
Situation
decommissioning
cf.
achem@@
forte.
advers@@
autum@@
indispens@@
immin@@
GM
advic@@
répondre.
disagreement
collaboration.
E.
accordés
effectif
burd@@
Algeria
mentionné,
partenaires,
spécialistes
l'Égyp@@
cular
remet
inspire
entente
maternité
inond@@
contain@@
découvert
convin@@
Japon,
individuelle
lac@@
usalem
Child@@
pères
protagon@@
évo@@
suffici@@
director@@
malades
Pologne.
Angol@@
ing-up
yet.
penalty.
worry@@
and/or
rétro@@
illusion
300@@
lands@@
futures.
courrier
augmentant
suggesting
alig@@
sacrifices
local.
undermines
Barroso.
ajustement
authori@@
provisions,
aspire
fausse
Marin@@
modè@@
request,
7.@@
part-session.
incom@@
emer@@
rappeler,
Multi@@
sovereign@@
territory,
regist@@
technologie.
quête
e-t-elle
achieve.
sembler
derived
dérivés
utilisons
mera
-A@@
t'
rival@@
reproduction
nigh@@
développ@@
emphatically
plat@@
jouit
contrainte
véhicule
hile
before@@
toxic@@
undeni@@
everywhere
known,
women@@
ght,
connues
législative.
capacities
professionnel
intensify
anybody
f-@@
worse,
and's
retiré
PESC
adoptent
décideurs
Trakate@@
records
fiscale.
aisément
conference,
sommet.
ams
individuelles
ès
occurr@@
Opportun@@
d’avis
urging
musulmans
minute,
étouff@@
témo@@
paraissent
officers
sel
ressive
habilit@@
marchan@@
peoples.
opportune
speakers,
consequences,
pilotes
délibérément
traitent
exploitation.
s'adresse
provoqu@@
Cul@@
commod@@
Have
stepping
bassin
facts.
erre
Agricultural
37,
Kin@@
Statu@@
differently
eg@@
disaster,
Kosovo@@
ren
home@@
Burmese
obligatory
pose@@
introduction,
indre
veillant
Kinnock,
aero@@
Jeux
States?
Sjösted@@
pilote
après-midi.
societies.
Commission?
homel@@
tural
compani@@
sées.
Chair
discriminate
culturelle.
accessibilité
régulier
joie
bancaires
basés
map@@
risquons
autorisée
Mandelson
ex
benef@@
basi@@
found@@
plein@@
rentrer
contracting
occupés
l'imposition
pousse
ratio
fiabilité
bus@@
indépendantes
barg@@
Nord@@
gue@@
bin@@
efforc@@
retenu
urgence,
octro@@
maintain@@
33@@
l’affaire
proposi@@
rationalisation
abortion
requise
recrutement
absti@@
15.
over,
opinions,
associe
flor@@
za
esses.
incendi@@
cessent
Particul@@
connections
arro@@
personally,
défic@@
med,
regret,
atures
céléb@@
méridion@@
pull
menant
biocarbur@@
Nombre
comit@@
scrupul@@
n'auront
Tajan@@
intention,
Initiative
Sixth
Poettering,
visits
strengthened.
idées,
multilatéral
rez,
énergie,
vré
weakness
committees.
incomprehensible
standardisation
Alb@@
GS@@
ho,
55@@
elsewhere,
horiz@@
Mozambi@@
pensioners
s'oppose
renforcer@@
partic@@
treat@@
beings,
kno@@
solidar@@
benefits.
Scottish
Mul@@
plant@@
enjoy@@
Christ@@
composée
comitologie
Tibet.
Lang@@
ques:
paper@@
democracies
psy@@
del
specify
resul@@
aten
visas.
terres@@
récipro@@
opinions.
ébran@@
l'ag@@
vote@@
couv@@
aps
Carlo@@
l'or@@
vite.
renationalisation
Democrat@@
occupying
cited
eral
cohab@@
dépenses.
l'étranger
2003@@
divergent
arrêts
respectueuse
èg@@
demo@@
acceptables
messieurs,
vag@@
pensez-vous
reputation
barbar@@
sommes,
titres
génétique
néfas@@
Yet,
j'apprécie
climat,
condamnons
decentralised
toucher
élargis@@
rési@@
:@@
congestion
generating
secrets
Bir@@
Saint-@@
solli@@
Berluscon@@
indispensable,
ajout
fund,
omin@@
Hatzidak@@
recommandé
award
maladie.
ryth@@
admitte@@
inacceptables
prehen@@
peri@@
engagement.
Slovaquie,
contenir
FMI
repos
herit@@
puisqu'elle
'European
threat.
idéologi@@
partnership,
danoise
avouer
Prestige
appropriées.
désireux
penal@@
Leurs
ball
L’objectif
résumer
Alliance,
incluent
On@@
d'entrée
environnementales,
intègre
rain
traditionnels
Regulation,
nominal
Christmas
transferring
Agency,
soyez
vegetable
austerity
flexibility,
either,
Far
spécificités
south-@@
staff.
settled
6.@@
scarcely
splendid
Tony
openn@@
ennent.
devons-nous
directeurs
conscience.
Annan
coupes
dées.
mort@@
d'étiquetage
clairement.
tangi@@
marquée
comporte@@
then.
shed
Frank@@
diction.
deau
govern
(CNS)).
alement.
disabilities
rice
pine
Pa@@
cessez-le-feu
réalise
Géorgie,
appropriately
rationnelle
Durant
saisi
intervenus
culturel.
theore@@
small@@
d'adapter
conflits,
Accession
l’impression
competing
Chair@@
protests
skilled
comfor@@
ultime
correctly,
s’y
Fish@@
empreintes
scale,
stabilise
principes,
cruel
explaining
augmentations
figures,
d'assumer
drogue,
case-@@
consacrées
recover
kilomètres
referr@@
weapon
déçu
constituait
imper@@
lawful
houses
Whatever
sided
facult@@
entre,
l'OTAN,
toys
désastre
expi@@
construction,
relie@@
père
juridiction
m'adresse
disciplinary
purpose,
unlikely
répu@@
Taking
cost.
relea@@
catholi@@
tam@@
small,
redou@@
respectés.
Bangladesh
l’OMC
trafficking,
yed.
heureu@@
Dra@@
nesses
l'Asie
pressures
militaires,
forwar@@
tne@@
yiel@@
risque.
mauv@@
heu@@
terre.
aisé
imminent
tention
exemplary
réclament
colleagues.
violated
Scientific
Prog@@
intéresser
connaissez
scandalous
Catholi@@
reconstitution
books
vers.
Dí@@
Ferrero-Waldner
allowances
committee's
dais
éner@@
tification
d'écou@@
multinationals
ralenti@@
maîtrise
labori@@
intervient
souscrire
d'éle@@
assessment.
hypothé@@
cations
protein
EE@@
protectionist
vig@@
crossing
là-bas
aggraver
hostile
Israel@@
Kab@@
exportation
US,
étonnant
mountain@@
Gah@@
machines
illustration
expects
env@@
j'y
perceived
l'OLAF
traités,
sage
délit
détail@@
ment's
l'OSCE
Caribbean
Barrot
acknowledges
ight
alleviate
ront,
enseign@@
puisque,
d’aujourd’hui
verra
concession
peupl@@
Sella@@
habitants.
l'année,
encer
porte-parole
GB@@
puissant
gging
l'île
harsh
cherché
socialement
seem@@
mondialis@@
cyber@@
préf@@
d'infrastructures
idée.
board,
quart
Bon
rigoureux
d'État,
assuming
women’s
île
anie,
murdered
MI@@
ze.
mardi
entities
2020@@
paritaire
SWIFT
redund@@
intra-@@
Quelques
ki.
dirigée
reviendrait
noble
ster
efficacement.
comporter
optique
Mugab@@
recueillir
Spring
centralised
ème@@
agement
jouera
ingéni@@
persuader
temper@@
souches
naturelles.
d'aucun
acquit@@
Indon@@
défendent
résolution)
consumers'
entrepris@@
preuve.
communities,
reconnues
œ@@
rogation
compétitif
ception
Marg@@
Mah@@
l’Iran
sexe
stimulating
barely
Frattini,
Europol.
qu'aujourd'hui,
inscription
controls.
ies.
cloning
bind@@
ing's
référence.
climat.
carries
loopho@@
ence?
abolir
tives.
propaganda
stru@@
signée
digit@@
cycles
lé
Tomlin@@
breast
workable
patient@@
fret
grippe
d'actes
Conven@@
combiner
constituents
multicul@@
fructueuse
américain,
ingrédients
counterfeiting
vio@@
utop@@
guardian
sa,
Pass@@
es'.
payments.
Interinstitutional
retenir
d'adaptation
millén@@
extent.
ler.
céréales
slaver@@
transparentes
soustr@@
l'éventu@@
réal@@
scientifique,
consequently,
mobility.
appareil
structure.
Venezuela
spokes@@
hidden
construit
suspected
rouge
sensé
dynamisme
reviend@@
biog@@
approb@@
quotidien@@
trace
prisonni@@
IND/DEM
l'asile
mandate,
Poland.
stipulated
demand,
duty-free
l’innovation
Saccon@@
regarde
racines
ideas,
ted@@
offri@@
tombe
soulignent
Perspecti@@
raient,
travailliste
sagesse
magistr@@
virtue
Thurs@@
te;
court,
burg,
négociation,
d’urgence
realities
avé@@
s'agira
abdu@@
anticipated
d’agir
imbalance
celui-ci,
pau@@
ordre.
Acc@@
wise,
ki,
breaks
resp@@
oration
himsel@@
L'aide
subsidies,
waiver
home,
rot@@
Swoboda,
inspectors
affecté
24,
love
spontan@@
pèsent
garantis
Tanno@@
disponibles,
roles
viendrait
waters.
suppos@@
réaliste.
cost@@
sea.
wood
group's
intermod@@
résidents
comprise
rectificatif
citoyen@@
producteur
Ot@@
indirecte@@
Piebal@@
laitiers
dogmati@@
stigmati@@
resist
committing
sociétés,
cache
competence.
dated
precarious
chyprio@@
favour,
otherwise,
ber,
tics,
harcèlement
(A6-0@@
distant
pom@@
é?
Taliban
challenging
convainc@@
approche,
warming
54
concernait
éo@@
rers
survey
retenue
l'élément
hui,
summary
validité
pur
accu@@
(the
product,
prosperity.
préoccupations.
signifier
50 @@
F.
ingly,
fill@@
striving
afternoon.
disappoin@@
outbreak
conseiller
Super@@
servant
distributed.
incenti@@
autorég@@
carriers
present@@
agri@@
sitting:
king.
exclut
réponde
affordable
Slovak@@
bold
Fal@@
smooth@@
espaces
inging
Loukach@@
défici@@
axe
attray@@
échap@@
ened
indicative
effond@@
11.
considérables.
acité
élaborée
divergence
moyens,
octobre.
Union;
tuberculo@@
escalade
menacés
payé
ts:
d'environnement
Danu@@
Agend@@
bod@@
anxious
echo
neighbours,
stepped
délai@@
sitting@@
convaincu@@
rigoureuse
Au-delà
Initi@@
Nep@@
Flor@@
uncertain
ailles
dange@@
gagn@@
forgetting
lawyers
penche
prosecution
devoirs
Cur@@
ena
écarts
Maj@@
chaus@@
Crespo@@
université
science,
cadmi@@
téri@@
aled
forecasts
migrant
activis@@
dépl@@
tradition,
rions-nous
dénomin@@
71
Ear@@
judiciary
trem@@
Bah@@
secured
enthousias@@
liberty
hearings
graves.
minute.
prevailing
eradic@@
l'immigration,
stein
procureur
3,@@
intentions.
sever@@
antibio@@
strugg@@
chapters
vieill@@
dedu@@
nom,
voyager
1991,
2009@@
pourrait-elle
isse.
instig@@
avertis@@
preferences
increased.
Today's
10 @@
ultra-@@
débarrasser
structurel
defen@@
aqu@@
Effe@@
Tun@@
good@@
(ET)
décidé,
decides
horro@@
intergouvernement@@
dements
traitant
Pourquoi?
certitu@@
accepted,
58
acute
longueur
mobility,
serre.
agin@@
déterminés
fuels.
proceed@@
excuser
delà
rerons
add,
reviewing
ignant
symp@@
non-prolifération
Part
fameux
being.
kes
accompagné
appuy@@
agir,
Verts/Alliance
parental
disgrace@@
permettez,
convergence,
Key@@
network,
interoperability
itement
couples
partagé
Contr@@
hours,
per,
offence
Rothley
á
détaill@@
Abk@@
semin@@
eradicate
bac@@
milest@@
appreciated
dece@@
trices
justifiée
inscrite
requièrent
cs,
found.
subvention
l'émergence
different,
pock@@
rôle.
week-end
Wurt@@
signifierait
retail
d'opinion
gestion.
transposer
n'auraient
Enlargement
d’apporter
per.
confé@@
l'exposé
targets,
Herzegovin@@
organisée.
s'en@@
vœux
approxim@@
checked
nice
bizar@@
Japan,
organs
spécialis@@
activités,
mélan@@
correctement.
ingredients
tribune
l'Euro@@
fer,
Caucasus
expriment
espr@@
dependency
electric@@
apportés
légu@@
s’assurer
mir
ity-@@
day-to-day
modifie
Cauca@@
interne,
réserver
persécution
entraves
visiting
remplit
ux.
privilege
reason.
demeu@@
signataires
Gen@@
ika
responsables.
provisional
capitale.
won@@
lands
laundering
humain@@
Further
Herman
l'H@@
referendum.
humaines,
exagger@@
présidentielles
clarifying
tentons
compliment
thinking,
advocating
Law@@
effectifs
repatri@@
ed;
operations.
courent
voudraient
Valenci@@
l'aci@@
modeste
cohesi@@
acceptation
Georgia,
Moscow
Izquierdo
doivent,
l'alcool
cas-@@
j’en
consommation.
reviendrai
préval@@
ILO
versé
ator.
weaker
censé
experts.
Buze@@
scenario
courage,
behin@@
priorité,
flam@@
l’entrée
fund.
attentat
ultimately,
departments
situées
l'inquiétude
status,
censés
Fir@@
denying
violate
et/ou
accidents,
asy@@
impérativement
introduisant
13.
56@@
restitutions
Refuge@@
independence,
l'Islan@@
Government's
rejects
contraignants
lante
turbul@@
us:
RD
l'OTAN.
revanche
abordées
.,
(H@@
weapons.
Göteborg
ato
régulière
annexes
inacceptable,
maisons
generally,
generations.
gure
distinguer
Bes@@
électri@@
Hi@@
(CNS))
l'industrie.
Andre@@
thique
Women@@
reur
raised,
externe
Strate@@
quest
entraînant
linguistiques
minimum.
transfrontalières
d'exploiter
excessivement
rez-vous
desc@@
deliberations
Lettonie
Velzen
Good
somewhere
menons
importés
ling@@
prosperous
biotechnology
débouch@@
flexibilité,
bénéfic@@
1er @@
Bure@@
délicate
oll@@
encouragent
savoir-faire
Biélorussi@@
puis-je
ètre
WH@@
endeavours
Bil@@
dotation
tration
Clearly
humane
Basi@@
sadly
accelerate
culturelle,
nom.
Chambre
countless
risen
gaz,
Wogau
d'administration
prominent
existantes,
arian@@
on's
insecurity
Bern@@
hypocrisy
reached.
ango@@
nique
commerciaux,
commerciaux.
forth
reformed
commet@@
1994.
bananas
Ph@@
well-being
biométri@@
échapper
signés
diction,
aison
commissaires,
examinées
garantisse
pleasant
Eri@@
attaqu@@
.»
Bour@@
cultivation
itting
laissons
electorate
d'étudier
—
y!
autorou@@
entraver
assou@@
lorsqu'elles
organ
que"
pretty
dirigé
Offici@@
tiss@@
afternoon,
sation,
Chernobyl
manière.
tight
déplacées
baign@@
translate
gazoduc
Lanka
eté
globale,
free,
Kash@@
renation@@
maîtr@@
bon.
approved,
forefront
Rome.
analysing
monét@@
Schmi@@
charac@@
échoué
stocks,
Bet@@
aucuns
sustain
justement,
part-time
gouvernance,
L'élargissement
diffuser
révol@@
remin@@
drasti@@
le;
autorisées
américain.
oil@@
troïka
remercier,
controls,
opted
26,
complé@@
prevail
Viêt
Composition
onnés
Gau@@
l’emploi,
oning
d'analyser
Chris@@
surcroît,
owner@@
sensible.
collect
intention@@
ft,
regrettable.
E)
benefici@@
Sinon,
-ci
multiplication
télécommunications,
hours.
Paul
Represent@@
ajustements
transitoi@@
accuse
Es@@
concernée
sché@@
aérien,
adoptera
nourrir
serious,
cotis@@
socio@@
stressing
Consid@@
Professor
reco@@
outs
aérien.
taught
x-@@
répercu@@
Nord-@@
mé
Tibet,
certains,
aggravation
known.
transpos@@
amendes
mique
devra@@
participa@@
Harbour@@
l’avez
délicat@@
reconstruction.
lying
village
Maintenant
placée
substitute
L'industrie
Zap@@
constitutionnel.
departure
seignement
Dire@@
secondly
Biélorussie
ctées
contribuable
partisan@@
voisinage.
animales
accident,
l’expérience
reunification
male
équivalent
adoptée,
Chan@@
automobil@@
intérêt.
empris@@
génère
repeating
creation.
ctor
elles-@@
paramount
volu@@
mirac@@
suited
échéance
est-à-dire
created,
customers
access@@
holi@@
ideas.
developments,
cel
makers
criteri@@
Corbet@@
ja@@
Mou@@
rhetoric
ASEAN
entendus
Dimen@@
additifs
hinder
restauration
comments,
Sec@@
magnifique
truth,
litiges
premature
slovaque
pluriannu@@
l'eau.
l'élevage
Katifor@@
halieutiques
covere@@
adds
delay@@
transfrontalier
résister
adhér@@
eman@@
nul@@
fondamental,
fini
recit@@
indépendants.
closely.
pavillon
faisaient
réclamé
habitants,
séances
oeuvre.
l'Afghanistan
irresponsable
tourism.
Merkel
l'homm@@
Romania.
tes-vous
notions
Otherwise
cease@@
l'apparition
charger
voter.
Nouvel@@
Donn@@
remerciant
plement
intervenu
did,
amè@@
mars.
d'exportation
monnai@@
J’en
…
rigid
Bosnie
Franç@@
turcs
Nabucco
prejudic@@
Lithuania,
interro@@
convenir
deux,
laiti@@
achats
Court,
reply,
sorts
glom@@
bénéficieront
ittel@@
recruitment
pride
continu
channel
autant,
ête.
Mandel@@
accords.
geopolitical
onne,
puissants
datab@@
diman@@
différent.
trer
sera-t-il
assiste
propagan@@
versements
40,
overview
second,
adoption.
prenantes
chère
message,
visage
ont-elles
sity
lign@@
foul@@
visites
tied
résoudre.
limitent
Scandin@@
pétrole,
cash
tably
ming@@
événe@@
Israéliens
2007-2013,
l'incapacité
chôm@@
opé@@
d'Irlande
médicaments.
améliorera
pouv@@
Education,
renvoie
Nu@@
aj@@
mettrait
back,
liable
d'aliments
shipy@@
approuvées
Swiss
poorly
hope.
processes.
militants
mother@@
scen@@
d'emblée
hygiène
cisi@@
exprim@@
arrêtée
readiness
particulière,
ctrice
aperçu
plafonds
considération,
making.
entretien
endro@@
renouvelable
illégale.
assass@@
main-d’@@
Under@@
coups
Dell'@@
minimise
arrog@@
vable
encompas@@
latine,
accueilli@@
Ford
avérée
BA@@
deliber@@
subsidies.
ir?
justifiable
L'autre
c?ur
ka.
agression
Why?
eligibility
Ombudsman's
repair
indicating
Mü@@
ent;
découpl@@
Development.
appuyant
Av@@
opposons
Regions
incapacité
flot@@
connaissance.
cover@@
parameters
Agricul@@
COM
repos@@
cheap@@
Claude
insisting
Bra@@
eons
dire:
ister
critique,
Protection,
ving@@
ase
selected
Youth,
électronique.
tonn@@
Communities
Diamantopoul@@
l’Ukraine
merveille@@
rerais
agre@@
lowing
Slovakia,
avian
vives
z-vous,
néolibér@@
Commiss@@
relocation
réelle.
System@@
anticiper
nourr@@
29,
vigorously
simpler
prog@@
s’ag@@
cold
Javier
worth@@
regroup@@
Fontain@@
gaz.
attitude.
immen@@
rencontre@@
prestige
tune
2000)
traditionnelle
Then,
widen@@
bureaucratiques
parents,
libre.
dés.
Cyprio@@
écol@@
abordons
tini
marchandises,
intéressent
envergure
Argentin@@
intéressées
l'achèvement
constitutionnel,
Corrections
reiterated
routiers
simplement,
ote
roy@@
mettr@@
Giscard
IL@@
lad@@
ve;
Schu@@
terminé
gaspillage
réhabilitation
ion@@
country’s
pétition
prévu.
type,
Regulation.
déclaration,
illustrates
Market,
lagging
niveaux.
spatiale
égalité.
sais,
transition.
rayer
honorer
organisés
polluter
ë@@
round.
apportant
Executive
fold
Prosecu@@
Bonino
illégales
pressure.
naturally,
Gom@@
guider
parler.
ège
éligibilité
medicine
fulness
confusion.
passagers,
"oui"
excès
Sév@@
concentrating
shipbuilding
avec,
associée
PM@@
unsatisfactory
ancies
l'abandon
querel@@
étonn@@
consu@@
mè@@
Pal@@
naiss@@
précip@@
tien
protects
Kir@@
l'avant
bilatéral
Bali
nes,
abus@@
abolished
béné@@
Gor@@
Ligue
regular@@
observations.
injuri@@
ignorance
ï
éprouvent
insé@@
children@@
commerciales,
cancer.
rule.
gens.
climate,
Pacific
œil
provin@@
reaffirm
placement
ples.
couvrent
demand.
libr@@
Madagas@@
aimerais
ministéri@@
consentir
pillar,
UN,
découra@@
scientifiques.
Ney@@
undermined
000.
menter
d'entreprendre
starts
parti,
4 @@
arrête
med.
angulaire
débloquer
amenés
silent
prononce
surveillance.
FM@@
pornographi@@
excluding
que -
blow
incredible
perpetrated
shut
coast@@
irrit@@
faible.
lax@@
depu@@
Crespo
Berlin.
Industry
important:
rigor@@
actuels,
Switzer@@
potential.
Troisième
pertinente
thérapeu@@
conve@@
honte@@
Gothenburg
lessly
Poutine
interdit@@
denomin@@
explan@@
prevention.
ng
avocats
compensations
thematic
cross@@
competitive.
indemnités
anything,
indirectement
concentre@@
rel
ental
confused
seig@@
personnalités
cadu@@
know-@@
vive
visory
alert
métri@@
Accord
countries?
properly,
Al-@@
Jan@@
débats,
prolon@@
passera
reminds
productive.
pression.
poursuivra
prenez
finances.
traités.
ultr@@
partiel
Croatie,
aun@@
contribuerait
d'intégr@@
RS
ordinaires
pre
Blair,
Pékin
capita
pêcher@@
vá@@
berg,
époque,
duplication
oil,
acquis.
transported
Lyn@@
deployed
volumes
sollicit@@
chaî@@
rehabilitation
contrer
l'acceptation
handicapées.
trafficking.
turques
près,
display
desti@@
Á@@
de;
mettrai
opt-@@
boosting
Wall@@
l'UC@@
Minister@@
Ge@@
Chich@@
newspapers
prenions
disappointing
arm
56
Sea.
propag@@
personnels
decade
arrach@@
S’il
identity.
representatives,
luttent
l'Assemblée,
George
sitting.
assurés
papers
journaliste
exhaus@@
Che@@
Imag@@
upgra@@
voisinage,
bonds
pauvre
Ankara
ened.
l'éducation.
mitting
flagrante
transitoires
mp
Estonia
punished
Rasmus@@
citizen.
Algérie
awar@@
filière
exhorte
revising
incidentally,
Lamfalussy
pillar.
tives,
Representative,
employees.
boissons
watching
l'unanimité.
vulnérables.
actionn@@
whatso@@
demands.
1999/@@
Schul@@
1989,
feed@@
refuses
redoubler
Morg@@
them?
ivent
.000
not?
différemment
ş@@
ink
fligh@@
can.
au-del@@
cancer,
généralis@@
réformes,
compétences.
Britanni@@
prohibit
déplorer
bound@@
Fisheries,
loss@@
encountered
doute.
craignent
réfu@@
Water
attitude,
(et
payments,
remplissent
off,
fram@@
illégalement
pétroliers
permanently
désavantag@@
Monti,
délibérations
radically
margins
rappellerai
internally
proche.
ates-@@
dic
commettre
jan@@
urges
Directorate-General
redres@@
Union:
réciprocité
informelle
facilite
aient.
atlanti@@
SME
Dro@@
jik@@
Nicaragu@@
Auditors,
ECOFIN
jusqu’@@
révèlent
Cancún
Kazakhstan
flagrant
prétendent
traffick@@
efficient.
statis@@
tsunami
pris,
stimulus
voiced
ctif
accordingly
intéressantes
répéti@@
fla@@
crop
Terroris@@
augh@@
Dublin,
ridicule
inférieure
ound@@
noir
shaping
songe
distinguished
er'
background,
Roc@@
fatal
improves
projet@@
vacances
12 @@
odi@@
tabled.
décri@@
happening.
infecti@@
VI
may@@
al's
adminis@@
recessi@@
income.
diab@@
Fontaine
adopts
èques
Tw@@
approved.
douanières
souffr@@
nutrition
j'appelle
choc
Mos@@
Simp@@
Égyp@@
physiques
longs
communiqu@@
sle@@
conferences
calm
discriminatoire
Vietnam
Israelis
pping
designated
confidence,
immunité
electric
aidé
minors
multilater@@
gru@@
souhaitait
Seppän@@
électricité
remplacé
bis@@
ologies
remarks.
fer.
Bla@@
décharg@@
élever
procedu@@
natur@@
n'ayant
Nic@@
1990.
réguliers
independently
admiration
construct
confli@@
Environ@@
allies
approprié.
UEN.
voting.
latine.
réforma@@
borro@@
Gollnis@@
commerciale.
statu
wild
ray@@
extends
autorisant
quoted
Bösch
changé.
specialised
du,
like.
esty
tromp@@
pricing
épar@@
Chirac
arrogance
autorisations
Feder@@
briè@@
l'export@@
porting
douanes
directly,
Again,
approaching
hosti@@
régionales,
Marco
préfér@@
allemands
Madrid,
l’équilibre
mechanism.
écri@@
l'école
rece@@
mid-@@
denounce
ridicul@@
coûts,
atteignent
validity
d'élections
l'utilis@@
gic
arrival
66
inadequate.
Gale@@
niveaux,
collaborateurs
ò@@
ap
d’asile
liberalisation,
grève
kovsk@@
beginning,
cend@@
rempli
Aç@@
included.
recommendations.
ica
défenseur
Kro@@
Secrétaire
occidentaux.
compensation.
évoquées
deux.
Mit@@
Ministry
nowaday@@
53
Peters@@
Rel@@
stricts
èque
stérité
symbolique
earthquak@@
blue
dubious
to-@@
USA.
Slové@@
d'autoriser
planet
irré@@
protéines
tarifaires
contenue
rues
reluct@@
adoptions
referendums
ilities.
décennies,
regretter
transmissi@@
righ@@
retention
dless
l’opposition
ato,
manquer
révéler
burg
switch
vrais
collab@@
«non@@
limitant
allegations
Garcí@@
dangereu@@
concl@@
Baltique.
trialogue
associations,
Kosov@@
bk@@
cles.
checking
restreint
-European
Tampere,
Chypriotes
6)
slowly
eping
douan@@
ambiguï@@
armement
rencontrées
peacekeeping
commerciales.
forcer
aman@@
encour@@
sommes-nous
Rübi@@
Malmström
gentle@@
préjudici@@
mechanism,
Perspective
Palacio,
foreseeable
included,
pressure,
asylum,
ille.
kill
soix@@
combustible
mobiles
embark
poul@@
Vice-President,
Irel@@
Kor@@
célèbre
exploitation,
intermédi@@
i:
fondamentale.
corrig@@
raisonnement
restructurations
weakening
illustrate
discer@@
préparatoires
respectées
législative,
etc@@
publiée
millénaire
migratoi@@
word,
Albanie
allemand,
programm@@
compan@@
narro@@
emi@@
téléphoni@@
façon.
Governments
l'inflation
Budap@@
facilitera
ides,
wa
benefit.
ethics
more@@
Autre
là-des@@
meaning@@
keeps
Qu'est-ce
L'heure
Anti-@@
theory
demeur@@
harder
méfiance
attel@@
divor@@
incitations
d'observation
dissemination
méditerranéen
debates,
dose
rencontres
sap@@
defines
maî@@
HIV/@@
rejetée
Tam@@
Equality
minorit@@
résultat,
rurales,
TAN
aire;
polluants
apprécier
précar@@
financing,
l'occupation
diplomacy
Maastricht.
condolences
suivra
plais@@
genre,
Vil@@
Cou@@
champs
deficiencies
five-year
citizens’
décev@@
agissons
list,
afflux
six@@
côtières
advised
FO@@
fri@@
corrom@@
d'organes
cab@@
Indonesia
Burun@@
hind@@
démocrate
a-t-on
barrier
répondrai
fur
relax@@
d'électricité
wat@@
dramatiques
illing
essence,
impressive
Process
Curr@@
Daph@@
maîtriser
authorit@@
devenues
equitable
schools,
DC@@
stre@@
interdisant
Chech@@
Sup@@
producteurs.
activité.
Sea,
Manuel
move@@
Traités,
activists
gap@@
pragmatique
sûr.
outset,
interpréter
Work
d'action,
Yor@@
envisageons
aded
aux:
questionable
introduced.
pers
indiqué,
début.
overlook
that@@
constrain@@
changed,
ety
engaging
CFP
d'arrêter
inte.
sea,
accident.
Ts@@
cars,
underpin@@
gration
Romano
indépendants,
Canadi@@
supported.
coverage
socialistes,
Leh@@
leaders,
behal@@
enters
âgés
assurent
denti@@
insistant
inflation.
conceptions
recession
mettrons
accumulation
ado
methods,
consumption,
protestations
accommo@@
populated
readmission
az
devrions-nous
salary
blocs
celebrate
aper
eradication
mothers
us?
exercice.
ped.
entiret@@
descend@@
comprises
Lind@@
profond@@
indési@@
l'ONU.
nordique
adapt@@
repai@@
e",
habitudes
dress@@
rooted
venth
Organisation.
cabillaud
Phili@@
suprême
brill@@
concrètes,
prendrons
ratification.
stéri@@
délocalisations
Tin@@
been,
ladite
périphériques
évè@@
appropriation
smugg@@
chec
refusons
failure.
preu@@
apprécions
beso@@
damage.
créera
biblioth@@
diminué
fines
d'au
57
aper@@
likewise
Nielson
impérati@@
ign
crimes,
Applaudissements
prohibited
demandait
philosoph@@
multiplier
maximal
mensong@@
liers
optique,
pense@@
Van@@
entendu.
atoire.
traumati@@
inquiets
credibility.
sois
bankrupt@@
comportent
ressortiss@@
privée.
working.
abatto@@
shameful
eat
mini-@@
munitions
eant
club@@
thirty
/02@@
tez-@@
Dal@@
Management
chinoises
alisme.
1980@@
procédur@@
repli@@
heure,
protective
cell@@
citizen,
Consumers
décident
presse.
interventions,
asset
armés
claires.
(LV)
decades.
dépendre
Bul@@
Oc@@
travailleur
cancell@@
mechanisms.
reveals
Moscou
l’origine
France@@
visibility
anie.
paralle@@
peoples,
rables
exceptionnelle
dignity,
elector@@
cut@@
attacher
Alleman@@
Ministers.
disposition.
fermé@@
bott@@
simultan@@
couvertes
unclear
J'apprécie
législature,
ández
anes
incorrect
l’intérieur
reconversion
aime
principes.
pressed
renforcée.
ound.
Byr@@
tenti@@
apar@@
Haye
slova@@
supposedly
protester
legislate
(COM(97@@
législateur
s’agissait
ior
Organization
scienti@@
ahead,
pollut@@
hémicycle.
claires,
slo
asile
dul@@
comment.
quitté
universi@@
opérationnels
courage@@
haut-@@
-0@@
finances,
sain
tâche.
restés
clause,
municipal
damaged
incroy@@
alcohol@@
forgot@@
behave
respected,
reurs
flags
gir@@
approached
Applause
adéquation
audaci@@
honnêtes
consist
excellent.
tiendront
lifesty@@
attent@@
dom
ha
uniformes
initiati@@
conju@@
edi@@
attentif
vital.
a @@
sévère
sages
ges,
timing
vessel
communs,
lis
Which
delegation,
Also
inquiétant
supportive
state-@@
anéanti@@
imperi@@
sorte.
adopté.
passeport
écologique.
experienc@@
entou@@
January.
wom@@
soudan@@
lituani@@
déblo@@
carcinog@@
flour@@
grandis@@
aber@@
justifient
tent.
mechanisms,
reduces
Seuls
Audit@@
restructu@@
ies,
tripartite
celebr@@
convergence.
affli@@
espoir.
subsist@@
disap@@
Langen
tempér@@
opt-out
ctioning
présente,
achemin@@
electrical
dification
agi@@
co-operation
roll-call
bate@@
alised.
spou@@
non-EU
travailler.
numé@@
défis.
pourrez
Kel@@
debts
punish
flexibilité.
sixth
Incre@@
experti@@
studied
ot
cord
Foundation
nover
sses
ony
perspectives.
remercions
démonstration
ment'
(Ex@@
agréable
fum@@
lit
block@@
28,
déplacements
(Applaudissements
Baltique,
rak@@
resolutions.
reflecting
appa@@
lorsqu'un
influenced
dep@@
Certain
perplex@@
aligner
echo@@
perçu
re!
gardienne
Alexander
challenge,
Ai@@
dommage@@
exploitants
Mur@@
auditions
Byrne
Feira
authoritarian
allocating
complain
d'accidents
Guinée
barom@@
l'orateur
loading
d'auteur
underestimate
slight
global.
had,
rappel
maroc@@
instauré
passages
fournira
jung@@
hed
ralentissement
souhaite,
PA
classified
l'auteur
sion:
tabled,
suffisante.
ity'
staff@@
pistes
èvement
creation,
decou@@
iterai
disgr@@
dépenses,
mixte
tissu
ouverte,
nevertheless,
insuffisant
conflicts.
benefits,
âgées,
Mulder
redev@@
(2@@
scourge
kistan
tale
automatique
medium-term
frankly
ablement.
oublie
souple
somebody
rememb@@
choix,
rubri@@
SS
propre@@
l'adhésion,
cars.
ends.
réparer
esprit.
pidémi@@
favoura@@
raci@@
s'opposent
database
vigou@@
éligibles
geons
ych@@
réit@@
viendront
nourrit@@
l'inst@@
énumé@@
criminelles
contenu,
géré
présidents,
agent
tournant
Égypte
d'économie
earliest
fed
consideration,
Anna
se)
vigorous
organisational
tful
parcourir
spécificité
try,
l'attente
resolutions,
originaire
seven@@
présidé
compliments
surprenant
s'efforcer
resident
92/@@
Eurodac
nons
sées,
commenc@@
l'assemblée
favours
ology
explore
gur@@
aujourd'hu@@
prises,
istr@@
DE,
confuse
envie
Istan@@
par-dessus
oce@@
cherchons
adaptations
somehow
compétitifs
Combien
rétab@@
Seconde
charging
environnementaux.
ridicu@@
DE
expon@@
complement@@
achi@@
Démocrates
d'auto@@
monitore@@
occasionn@@
Å@@
enda
contaminated
baro@@
Organisation,
civilisation.
estimate
reconnaisse
l'accord.
ino,
ordres
Legisl@@
impartial
Nation@@
teenth
adult
criminalité.
arcti@@
Vic@@
fostering
néo@@
réunification
considered.
works,
island@@
affair
plane
itary
citoyenne
cultures.
l'avantage
expectations.
Sten@@
25.
68@@
respectées.
unequal
Category
mach@@
boats
None
(L'@@
Prote@@
macro-economic
from,
polluting
Procedu@@
chances,
repris@@
Belarusian
serbe
vacu@@
Lo@@
calculated
ve-@@
avail@@
ité"
alternative.
réciproque
engagements.
-t-on
sie
long-standing
combl@@
Vel@@
carefully.
company,
semble@@
including,
ant?
Lom@@
s'agir
destruction.
d'autorisation
ank
défendons
assert
Paris,
Britain,
goût
accroît
incompréhensible
ideology
progressiste
reactors
tly,
Koh@@
préoccupée
Daphne
démago@@
valables
Portug@@
suivons
effectue
enseig@@
capitaux,
League
cancer@@
knowledge.
Partner@@
employees,
Paper.
tonne
Prenons
d'information,
tirent
unambiguous
supervision.
criminalité,
réunion,
surance
prévu,
plants.
Lord
Kal@@
certain,
Il@@
Front
meanti@@
resol@@
i?
réalisé.
l'utilité
Indonesi@@
n° @@
provocation
fanati@@
Congo.
travell@@
responsables,
simply,
updated
situation?
ITE@@
guid@@
death@@
eue
ker,
fif@@
Red
exon@@
belong@@
demandé,
Traités.
d’euros.
improvement.
profits.
scénari@@
Looking
manufactu@@
outrage@@
plé@@
hypothè@@
européenne;
ules
officiels
précisi@@
d’association
précisions
Alavan@@
seign@@
isely
corridors
worldwide.
capabilities
Cancú@@
âme
catches
rami@@
isse@@
continental
vrai.
April.
goodwill
Need@@
Workers
listen@@
signation
voir.
rests
July.
airspace
reciprocal
Serbie,
laï@@
investigating
collecting
ques?
beautiful
ori,
web@@
MEDIA
parallèlement,
Fondation
médiation
équivaut
covery
bad@@
gage
maintained.
passion
Darfour@@
dirigeant
happened,
cacher
irregular@@
régres@@
sauvetage
credits
tile
d'hu@@
leng@@
exécutif
contributions,
cac@@
l'argument
neaux
fondateurs
collectivités
me?
risks,
no,
hatred
sceptiques
fisheries,
préoccupent
parfait
shoo@@
EU-wide
communistes
brie@@
ours.
d'orientation
Roth-Behrendt
refonte
appeals
Kyi
emploie
adhered
ressemble
ef
wel@@
parlant
rôle,
orales
absolu
aforementioned
souverainet@@
ément.
2015,
l'identification
déclarée
accompagnée
fied,
ari
estimation
desperate
People'
muler
revendi@@
counterfeit
collectives
legi@@
Lagendij@@
Mé@@
semblables
subsistent
Bosnie-Herzégov@@
arrêtés
comme,
l'avoir
faire?
Steven@@
salle
optimale
worries
menacées
pandémi@@
traditionally
Depre@@
evidently
âge,
exploiting
législature.
15 @@
statutory
pesticides.
Wa@@
défendu@@
penalty,
suédois,
handicapés
aphteuse
espérons-@@
rigour
excu@@
Left,
managers
privilégier
préventive
éclair@@
balances
meurtre
station@@
110
furthermore
sharp
rages
wrong,
pétrole.
autrefois
l’éducation,
shocked
excessif
l'énorme
Diff@@
privée,
Imple@@
captu@@
Posi@@
ctricité,
l'Année
transmises
struggling
Busqu@@
neutralité
symboles
affectant
polé@@
adoptée.
volonté,
veloppe
chimique
Inquir@@
balancing
disposerons
réuni
l'essence
statistique
pédi@@
çait
elabor@@
trouverons
retrouv@@
déplo@@
replied
logique,
Monterre@@
resolu@@
élargi
14.
citing
du.
documents:
franc
appoint@@
sides,
environnementaux,
individu
load
quarante
headed
many,
premier,
crow@@
expulsion
camions
aident
accorded
raisonnable,
Saudi
ca
Aher@@
Colombia
retained
minu@@
dissimul@@
brutal@@
devast@@
rendez-vous
Roms,
begins
courts.
pieces
Macédoine,
medicines.
visa.
authoriti@@
femme.
judgement
illon
evaluated
against,
Former
précédente,
obviously,
disparu
forward-@@
conversations
locaux,
assoupl@@
interpr@@
bureaucracy.
insolv@@
grassroots
monitoring,
hierarch@@
ème,
archite@@
théâ@@
médicaments,
homologues
obtain@@
ande
exécutions
termine
d'octroyer
Karas
hedge
Vall@@
prévoyait
disadvantages
Irlandais
d'avenir
Voting
exceptions,
LAF@@
progresse
Cox
Quartet
préparatoire
Dim@@
-9@@
logiciels
reacted
overseas
alléger
audits
conçue
informati@@
ach,
capitaux.
reveal
disarmament
écarter
engendré
occidental
honnêteté
Are@@
bes,
labour.
éclat@@
pause
recor@@
open.
ws,
Putin
ater
solidaire
promptly
Fischer
reconstruire
davantage,
Lim@@
ommunaut@@
irréver@@
obsole@@
vite,
Wijsenbee@@
mû@@
Iceland
sépare
earth
étudié
hes
chose:
cohérente.
Pie@@
prononcés
vendre@@
partenariat.
l’exercice
cow
ask@@
qu'aujourd'hui
régionales.
proceeding
Bourlanges
aimer@@
night,
FA@@
revis@@
Assembly,
about@@
aquacul@@
ß@@
VO@@
apply.
sphere.
vus
gamme
propri@@
proch@@
clus@@
comprendra
tre-@@
saved
contracts,
Sadly,
vre
ri,
définissant
regrettable,
Peij@@
LIF@@
morn@@
marchandises.
scheme.
Götebor@@
slovène
uvre.
ts?
décre@@
Hist@@
ived
pê@@
contempl@@
ú@@
bassa@@
partenariat,
DA
Paasilin@@
inutilement
Hul@@
Marti@@
perpétrés
Maij-Wegg@@
11 @@
performing
rapporte
immigrant
Delegation
purchas@@
d'avancement
boycott
Eff@@
attending
antérieu@@
caractéristique
avancement
l'évidence,
voquer
q
conflicts,
méditerranéens
ambition.
l'Albanie
Gaz@@
semblable
Permettez-moi,
financée
favorisent
damages
l'internet.
préhen@@
gée.
scientific@@
through,
choosing
Obje@@
obstacles.
unresolved
naufra@@
consumer,
ésie
rotation
limited.
Hungari@@
harassment
gather
ridiculous
Area
updating
pakistan@@
parfaite
negle@@
tel,
ambitions.
contourner
supprimé
impô@@
Competition
Darfur
detained
Evans
plaît,
l'extrême
examinerons
d'État.
bet@@
EU-Russia
Certainly,
tropic@@
v,
commerciale,
unavo@@
embryons
transition,
Rwanda
Kazakhst@@
exported
in's
esses,
opèrent
est-à-dire,
(COM(96@@
measuring
occupé
Moroccan
restrictions.
généri@@
chap@@
condemns
Niel@@
allemande,
Noire
exists.
taining
collectif
individ@@
hormones
successful,
understand.
supervision,
flexibles
enormously
méconten@@
Mag@@
coordinateur
Ath@@
inent
pation
behaviour.
vent,
resourc@@
verify
dérouler
fairness
l'Atlantique
indonési@@
première,
génési@@
accura@@
organisms
exemplaire
entrusted
Finally
Ukraini@@
l'embargo
légaux
navals
Salafranca
Pays-Bas.
88@@
tly.
assigned
récent@@
Mexi@@
minded
notori@@
restons
organisée,
lesquel@@
conti@@
57@@
ons?
donnerait
indépendance,
foresti@@
urbaines
an's
derog@@
Garg@@
thing:
reaffir@@
n'empêche
ivable
d’examiner
changement.
entail@@
actualité
bought
reliability
kilometres
philosophi@@
hygiene
EC)
irakien
accommod@@
L'expérience
shot
producer@@
Croatia,
Wallström,
2004@@
aut.
Instrument
recy@@
occurring
stres@@
store
simultaneously
l’Afrique
Pres@@
ink@@
murde@@
sante
urgentes
rarely
decades,
flood
potable
desperately
cu
Randzio-Pla@@
terreur
sitting,
who@@
convers@@
Merk@@
motion,
Decisi@@
érir
parviendra
weekend
Conseils
featu@@
transporte@@
taient
articul@@
électrique
pneu@@
naître
identifié
intelligente
nommer
l'horizon
Tomorro@@
permissi@@
upper
technologique,
fédération
Quarte@@
lenteur
ambassadeur
semi-@@
tranger
racisme,
surroun@@
Caudr@@
unusual
bombes
légumes
DP
plication
saisis
tighten
Taiwan@@
method,
CO
glas@@
faveur.
IND/DEM.
operators,
Ni
peace-@@
mind@@
acts.
précédé
chie@@
laps
Coel@@
Ramo@@
distort
feraient
conceal
manifestants
écoute
pier@@
delay,
coupable
accept.
menacer
l’obligation
l'enquête
seur
disappear
performed
LIFE
cive
déclaration.
sûres
imprisoned
vin@@
combining
readily
pus
électronique,
Ken@@
programmes@@
shop
chemic@@
eleven
programme-cadre.
Junck@@
adher@@
currencies
dreadful
discute
speed@@
d’égalité
breeding
Yougoslavie,
suring
optimisme
resett@@
facile.
Canary
rewar@@
axé
l'ère
Fo@@
condamnations
precau@@
origine.
rupture
médica@@
Copenhag@@
noire
eded
stratégique,
abord,
écl@@
impul@@
pione@@
s'attendre
cumb@@
Pra@@
empêchant
900
élevés,
Contro@@
aspiration
Pom@@
Serbia,
Valle@@
Rather
équilibré.
lic
Boli@@
parliament,
Pay@@
realize
foodstuff@@
disper@@
détachement
sceptical
wered
visait
Häns@@
simplification,
[...]
